{"version":"1.0","truncation":null,"padding":null,"added_tokens":[{"id":0,"special":true,"content":"[UNK]","single_word":false,"lstrip":false,"rstrip":false,"normalized":false},{"id":1,"special":true,"content":"[CLS]","single_word":false,"lstrip":false,"rstrip":false,"normalized":false},{"id":2,"special":true,"content":"[SEP]","single_word":false,"lstrip":false,"rstrip":false,"normalized":false},{"id":3,"special":true,"content":"[PAD]","single_word":false,"lstrip":false,"rstrip":false,"normalized":false},{"id":4,"special":true,"content":"[MASK]","single_word":false,"lstrip":false,"rstrip":false,"normalized":false},{"id":5,"special":true,"content":"[BPE]","single_word":false,"lstrip":false,"rstrip":false,"normalized":false},{"id":6,"special":true,"content":"\r","single_word":false,"lstrip":false,"rstrip":false,"normalized":false},{"id":7,"special":true,"content":"\t","single_word":false,"lstrip":false,"rstrip":false,"normalized":false},{"id":8,"special":true,"content":"\u000b","single_word":false,"lstrip":false,"rstrip":false,"normalized":false},{"id":9,"special":true,"content":"\n\n","single_word":false,"lstrip":false,"rstrip":false,"normalized":false},{"id":10,"special":true,"content":"\n","single_word":false,"lstrip":false,"rstrip":false,"normalized":false},{"id":11,"special":true,"content":"        ","single_word":false,"lstrip":false,"rstrip":false,"normalized":false},{"id":12,"special":true,"content":"    ","single_word":false,"lstrip":false,"rstrip":false,"normalized":false},{"id":13,"special":true,"content":"  ","single_word":false,"lstrip":false,"rstrip":false,"normalized":false},{"id":14,"special":true,"content":" ","single_word":false,"lstrip":false,"rstrip":false,"normalized":false},{"id":30000,"special":true,"content":"[forward_parameter]","single_word":false,"lstrip":false,"rstrip":false,"normalized":false},{"id":30001,"special":true,"content":"[ms_unsigned_ptr_modifier]","single_word":false,"lstrip":false,"rstrip":false,"normalized":false},{"id":30002,"special":true,"content":"[record_struct_declaration]","single_word":false,"lstrip":false,"rstrip":false,"normalized":false},{"id":30003,"special":true,"content":"[ms_call_modifier]","single_word":false,"lstrip":false,"rstrip":false,"normalized":false},{"id":30004,"special":true,"content":"[begin_block]","single_word":false,"lstrip":false,"rstrip":false,"normalized":false},{"id":30005,"special":true,"content":"[make_ref_expression]","single_word":false,"lstrip":false,"rstrip":false,"normalized":false},{"id":30006,"special":true,"content":"[receiver_parameter]","single_word":false,"lstrip":false,"rstrip":false,"normalized":false},{"id":30007,"special":true,"content":"[join_into_clause]","single_word":false,"lstrip":false,"rstrip":false,"normalized":false},{"id":30008,"special":true,"content":"[list_binding_pattern]","single_word":false,"lstrip":false,"rstrip":false,"normalized":false},{"id":30009,"special":true,"content":"[primary_constructor_base_type]","single_word":false,"lstrip":false,"rstrip":false,"normalized":false},{"id":30010,"special":true,"content":"[ref_value_expression]","single_word":false,"lstrip":false,"rstrip":false,"normalized":false},{"id":30011,"special":true,"content":"[nullsafe_member_call_expression]","single_word":false,"lstrip":false,"rstrip":false,"normalized":false},{"id":30012,"special":true,"content":"[match_operator]","single_word":false,"lstrip":false,"rstrip":false,"normalized":false},{"id":30013,"special":true,"content":"[function_pointer_unmanaged_calling_convention_list]","single_word":false,"lstrip":false,"rstrip":false,"normalized":false},{"id":30014,"special":true,"content":"[function_pointer_unmanaged_calling_convention]","single_word":false,"lstrip":false,"rstrip":false,"normalized":false},{"id":30015,"special":true,"content":"[const_block]","single_word":false,"lstrip":false,"rstrip":false,"normalized":false},{"id":30016,"special":true,"content":"[enum_declaration_list]","single_word":false,"lstrip":false,"rstrip":false,"normalized":false},{"id":30017,"special":true,"content":"[enum_case]","single_word":false,"lstrip":false,"rstrip":false,"normalized":false},{"id":30018,"special":true,"content":"[end_block]","single_word":false,"lstrip":false,"rstrip":false,"normalized":false},{"id":30019,"special":true,"content":"[type_pattern]","single_word":false,"lstrip":false,"rstrip":false,"normalized":false},{"id":30020,"special":true,"content":"[decl_tyfam_sig]","single_word":false,"lstrip":false,"rstrip":false,"normalized":false},{"id":30021,"special":true,"content":"[use_instead_of_clause]","single_word":false,"lstrip":false,"rstrip":false,"normalized":false},{"id":30022,"special":true,"content":"[exp_unboxed_sum]","single_word":false,"lstrip":false,"rstrip":false,"normalized":false},{"id":30023,"special":true,"content":"[constrain_module_type]","single_word":false,"lstrip":false,"rstrip":false,"normalized":false},{"id":30024,"special":true,"content":"[type_unboxed_sum]","single_word":false,"lstrip":false,"rstrip":false,"normalized":false},{"id":30025,"special":true,"content":"[rational]","single_word":false,"lstrip":false,"rstrip":false,"normalized":false},{"id":30026,"special":true,"content":"[let_open_class_type]","single_word":false,"lstrip":false,"rstrip":false,"normalized":false},{"id":30027,"special":true,"content":"[requires_modifier]","single_word":false,"lstrip":false,"rstrip":false,"normalized":false},{"id":30028,"special":true,"content":"[typed_class_expression]","single_word":false,"lstrip":false,"rstrip":false,"normalized":false},{"id":30029,"special":true,"content":"[warning_directive]","single_word":false,"lstrip":false,"rstrip":false,"normalized":false},{"id":30030,"special":true,"content":"[exp_sum_empty]","single_word":false,"lstrip":false,"rstrip":false,"normalized":false},{"id":30031,"special":true,"content":"[let_open_class_expression]","single_word":false,"lstrip":false,"rstrip":false,"normalized":false},{"id":30032,"special":true,"content":"[quoted_item_extension]","single_word":false,"lstrip":false,"rstrip":false,"normalized":false},{"id":30033,"special":true,"content":"[complex]","single_word":false,"lstrip":false,"rstrip":false,"normalized":false},{"id":30034,"special":true,"content":"[group_clause]","single_word":false,"lstrip":false,"rstrip":false,"normalized":false},{"id":30035,"special":true,"content":"[omitting_type_annotation]","single_word":false,"lstrip":false,"rstrip":false,"normalized":false},{"id":30036,"special":true,"content":"[extern_alias_directive]","single_word":false,"lstrip":false,"rstrip":false,"normalized":false},{"id":30037,"special":true,"content":"[attributed_declarator]","single_word":false,"lstrip":false,"rstrip":false,"normalized":false},{"id":30038,"special":true,"content":"[query_continuation]","single_word":false,"lstrip":false,"rstrip":false,"normalized":false},{"id":30039,"special":true,"content":"[quoted_extension]","single_word":false,"lstrip":false,"rstrip":false,"normalized":false},{"id":30040,"special":true,"content":"[undef_directive]","single_word":false,"lstrip":false,"rstrip":false,"normalized":false},{"id":30041,"special":true,"content":"[positional_pattern_clause]","single_word":false,"lstrip":false,"rstrip":false,"normalized":false},{"id":30042,"special":true,"content":"[parenthesized_class_expression]","single_word":false,"lstrip":false,"rstrip":false,"normalized":false},{"id":30043,"special":true,"content":"[primitive_definition]","single_word":false,"lstrip":false,"rstrip":false,"normalized":false},{"id":30044,"special":true,"content":"[match_default_expression]","single_word":false,"lstrip":false,"rstrip":false,"normalized":false},{"id":30045,"special":true,"content":"[expent]","single_word":false,"lstrip":false,"rstrip":false,"normalized":false},{"id":30046,"special":true,"content":"[view_bound]","single_word":false,"lstrip":false,"rstrip":false,"normalized":false},{"id":30047,"special":true,"content":"[with_expression]","single_word":false,"lstrip":false,"rstrip":false,"normalized":false},{"id":30048,"special":true,"content":"[with_initializer_expression]","single_word":false,"lstrip":false,"rstrip":false,"normalized":false},{"id":30049,"special":true,"content":"[namespace_export]","single_word":false,"lstrip":false,"rstrip":false,"normalized":false},{"id":30050,"special":true,"content":"[function_pointer_calling_convention]","single_word":false,"lstrip":false,"rstrip":false,"normalized":false},{"id":30051,"special":true,"content":"[co_return_statement]","single_word":false,"lstrip":false,"rstrip":false,"normalized":false},{"id":30052,"special":true,"content":"[named_label_statement]","single_word":false,"lstrip":false,"rstrip":false,"normalized":false},{"id":30053,"special":true,"content":"[redo]","single_word":false,"lstrip":false,"rstrip":false,"normalized":false},{"id":30054,"special":true,"content":"[file_scoped_namespace_declaration]","single_word":false,"lstrip":false,"rstrip":false,"normalized":false},{"id":30055,"special":true,"content":"[asserts]","single_word":false,"lstrip":false,"rstrip":false,"normalized":false},{"id":30056,"special":true,"content":"[template_literal_type]","single_word":false,"lstrip":false,"rstrip":false,"normalized":false},{"id":30057,"special":true,"content":"[interpolation_alignment_clause]","single_word":false,"lstrip":false,"rstrip":false,"normalized":false},{"id":30058,"special":true,"content":"[format_expression]","single_word":false,"lstrip":false,"rstrip":false,"normalized":false},{"id":30059,"special":true,"content":"[meta_property]","single_word":false,"lstrip":false,"rstrip":false,"normalized":false},{"id":30060,"special":true,"content":"[match_conditional_expression]","single_word":false,"lstrip":false,"rstrip":false,"normalized":false},{"id":30061,"special":true,"content":"[match_condition_list]","single_word":false,"lstrip":false,"rstrip":false,"normalized":false},{"id":30062,"special":true,"content":"[function_pointer_type]","single_word":false,"lstrip":false,"rstrip":false,"normalized":false},{"id":30063,"special":true,"content":"[do_module]","single_word":false,"lstrip":false,"rstrip":false,"normalized":false},{"id":30064,"special":true,"content":"[simple_assignment_expression]","single_word":false,"lstrip":false,"rstrip":false,"normalized":false},{"id":30065,"special":true,"content":"[class_function]","single_word":false,"lstrip":false,"rstrip":false,"normalized":false},{"id":30066,"special":true,"content":"[var_pattern]","single_word":false,"lstrip":false,"rstrip":false,"normalized":false},{"id":30067,"special":true,"content":"[destructured_left_assignment]","single_word":false,"lstrip":false,"rstrip":false,"normalized":false},{"id":30068,"special":true,"content":"[default_declaration]","single_word":false,"lstrip":false,"rstrip":false,"normalized":false},{"id":30069,"special":true,"content":"[exec_statement]","single_word":false,"lstrip":false,"rstrip":false,"normalized":false},{"id":30070,"special":true,"content":"[binary_integer_literal]","single_word":false,"lstrip":false,"rstrip":false,"normalized":false},{"id":30071,"special":true,"content":"[module_declaration]","single_word":false,"lstrip":false,"rstrip":false,"normalized":false},{"id":30072,"special":true,"content":"[module_body]","single_word":false,"lstrip":false,"rstrip":false,"normalized":false},{"id":30073,"special":true,"content":"[rest_type]","single_word":false,"lstrip":false,"rstrip":false,"normalized":false},{"id":30074,"special":true,"content":"[namespace_statement]","single_word":false,"lstrip":false,"rstrip":false,"normalized":false},{"id":30075,"special":true,"content":"[relational_pattern]","single_word":false,"lstrip":false,"rstrip":false,"normalized":false},{"id":30076,"special":true,"content":"[exponentiation_expression]","single_word":false,"lstrip":false,"rstrip":false,"normalized":false},{"id":30077,"special":true,"content":"[let_clause]","single_word":false,"lstrip":false,"rstrip":false,"normalized":false},{"id":30078,"special":true,"content":"[namespace_use_group]","single_word":false,"lstrip":false,"rstrip":false,"normalized":false},{"id":30079,"special":true,"content":"[transform]","single_word":false,"lstrip":false,"rstrip":false,"normalized":false},{"id":30080,"special":true,"content":"[order_by_clause]","single_word":false,"lstrip":false,"rstrip":false,"normalized":false},{"id":30081,"special":true,"content":"[shebang]","single_word":false,"lstrip":false,"rstrip":false,"normalized":false},{"id":30082,"special":true,"content":"[attributed_statement]","single_word":false,"lstrip":false,"rstrip":false,"normalized":false},{"id":30083,"special":true,"content":"[uninterpreted]","single_word":false,"lstrip":false,"rstrip":false,"normalized":false},{"id":30084,"special":true,"content":"[jsx_namespace_name]","single_word":false,"lstrip":false,"rstrip":false,"normalized":false},{"id":30085,"special":true,"content":"[co_await_expression]","single_word":false,"lstrip":false,"rstrip":false,"normalized":false},{"id":30086,"special":true,"content":"[foreign_export]","single_word":false,"lstrip":false,"rstrip":false,"normalized":false},{"id":30087,"special":true,"content":"[rest_assignment]","single_word":false,"lstrip":false,"rstrip":false,"normalized":false},{"id":30088,"special":true,"content":"[debugger_statement]","single_word":false,"lstrip":false,"rstrip":false,"normalized":false},{"id":30089,"special":true,"content":"[undef]","single_word":false,"lstrip":false,"rstrip":false,"normalized":false},{"id":30090,"special":true,"content":"[named_expression]","single_word":false,"lstrip":false,"rstrip":false,"normalized":false},{"id":30091,"special":true,"content":"[functional_extension]","single_word":false,"lstrip":false,"rstrip":false,"normalized":false},{"id":30092,"special":true,"content":"[rec]","single_word":false,"lstrip":false,"rstrip":false,"normalized":false},{"id":30093,"special":true,"content":"[qualified_type_operator]","single_word":false,"lstrip":false,"rstrip":false,"normalized":false},{"id":30094,"special":true,"content":"[do_while_expression]","single_word":false,"lstrip":false,"rstrip":false,"normalized":false},{"id":30095,"special":true,"content":"[join_clause]","single_word":false,"lstrip":false,"rstrip":false,"normalized":false},{"id":30096,"special":true,"content":"[role_annotation]","single_word":false,"lstrip":false,"rstrip":false,"normalized":false},{"id":30097,"special":true,"content":"[record_binding_pattern]","single_word":false,"lstrip":false,"rstrip":false,"normalized":false},{"id":30098,"special":true,"content":"[expression_colon]","single_word":false,"lstrip":false,"rstrip":false,"normalized":false},{"id":30099,"special":true,"content":"[define_directive]","single_word":false,"lstrip":false,"rstrip":false,"normalized":false},{"id":30100,"special":true,"content":"[refutation_case]","single_word":false,"lstrip":false,"rstrip":false,"normalized":false},{"id":30101,"special":true,"content":"[until_modifier]","single_word":false,"lstrip":false,"rstrip":false,"normalized":false},{"id":30102,"special":true,"content":"[pat_negation]","single_word":false,"lstrip":false,"rstrip":false,"normalized":false},{"id":30103,"special":true,"content":"[error_directive]","single_word":false,"lstrip":false,"rstrip":false,"normalized":false},{"id":30104,"special":true,"content":"[unsafe_statement]","single_word":false,"lstrip":false,"rstrip":false,"normalized":false},{"id":30105,"special":true,"content":"[negative_literal]","single_word":false,"lstrip":false,"rstrip":false,"normalized":false},{"id":30106,"special":true,"content":"[let_exception_expression]","single_word":false,"lstrip":false,"rstrip":false,"normalized":false},{"id":30107,"special":true,"content":"[type_unboxed_tuple]","single_word":false,"lstrip":false,"rstrip":false,"normalized":false},{"id":30108,"special":true,"content":"[subpattern]","single_word":false,"lstrip":false,"rstrip":false,"normalized":false},{"id":30109,"special":true,"content":"[function_pointer_parameter]","single_word":false,"lstrip":false,"rstrip":false,"normalized":false},{"id":30110,"special":true,"content":"[constructor_type]","single_word":false,"lstrip":false,"rstrip":false,"normalized":false},{"id":30111,"special":true,"content":"[retry]","single_word":false,"lstrip":false,"rstrip":false,"normalized":false},{"id":30112,"special":true,"content":"[type_role]","single_word":false,"lstrip":false,"rstrip":false,"normalized":false},{"id":30113,"special":true,"content":"[shell_command_expression]","single_word":false,"lstrip":false,"rstrip":false,"normalized":false},{"id":30114,"special":true,"content":"[binary_pattern]","single_word":false,"lstrip":false,"rstrip":false,"normalized":false},{"id":30115,"special":true,"content":"[opting_type_annotation]","single_word":false,"lstrip":false,"rstrip":false,"normalized":false},{"id":30116,"special":true,"content":"[ref_expression]","single_word":false,"lstrip":false,"rstrip":false,"normalized":false},{"id":30117,"special":true,"content":"[annotated_type]","single_word":false,"lstrip":false,"rstrip":false,"normalized":false},{"id":30118,"special":true,"content":"[switch_rule]","single_word":false,"lstrip":false,"rstrip":false,"normalized":false},{"id":30119,"special":true,"content":"[until]","single_word":false,"lstrip":false,"rstrip":false,"normalized":false},{"id":30120,"special":true,"content":"[when_clause]","single_word":false,"lstrip":false,"rstrip":false,"normalized":false},{"id":30121,"special":true,"content":"[property_promotion_parameter]","single_word":false,"lstrip":false,"rstrip":false,"normalized":false},{"id":30122,"special":true,"content":"[parenthesized_module_type]","single_word":false,"lstrip":false,"rstrip":false,"normalized":false},{"id":30123,"special":true,"content":"[for_lifetimes]","single_word":false,"lstrip":false,"rstrip":false,"normalized":false},{"id":30124,"special":true,"content":"[ms_pointer_modifier]","single_word":false,"lstrip":false,"rstrip":false,"normalized":false},{"id":30125,"special":true,"content":"[ms_restrict_modifier]","single_word":false,"lstrip":false,"rstrip":false,"normalized":false},{"id":30126,"special":true,"content":"[stack_alloc_array_creation_expression]","single_word":false,"lstrip":false,"rstrip":false,"normalized":false},{"id":30127,"special":true,"content":"[catch_filter_clause]","single_word":false,"lstrip":false,"rstrip":false,"normalized":false},{"id":30128,"special":true,"content":"[nonlocal_statement]","single_word":false,"lstrip":false,"rstrip":false,"normalized":false},{"id":30129,"special":true,"content":"[while_modifier]","single_word":false,"lstrip":false,"rstrip":false,"normalized":false},{"id":30130,"special":true,"content":"[data_constructor_infix]","single_word":false,"lstrip":false,"rstrip":false,"normalized":false},{"id":30131,"special":true,"content":"[destructor_declaration]","single_word":false,"lstrip":false,"rstrip":false,"normalized":false},{"id":30132,"special":true,"content":"[ms_declspec_modifier]","single_word":false,"lstrip":false,"rstrip":false,"normalized":false},{"id":30133,"special":true,"content":"[hash_bang_line]","single_word":false,"lstrip":false,"rstrip":false,"normalized":false},{"id":30134,"special":true,"content":"[functor]","single_word":false,"lstrip":false,"rstrip":false,"normalized":false},{"id":30135,"special":true,"content":"[property_pattern_clause]","single_word":false,"lstrip":false,"rstrip":false,"normalized":false},{"id":30136,"special":true,"content":"[namespace_use_group_clause]","single_word":false,"lstrip":false,"rstrip":false,"normalized":false},{"id":30137,"special":true,"content":"[lazy_pattern]","single_word":false,"lstrip":false,"rstrip":false,"normalized":false},{"id":30138,"special":true,"content":"[imaginary_literal]","single_word":false,"lstrip":false,"rstrip":false,"normalized":false},{"id":30139,"special":true,"content":"[tycon_arrow]","single_word":false,"lstrip":false,"rstrip":false,"normalized":false},{"id":30140,"special":true,"content":"[exp_if_guard]","single_word":false,"lstrip":false,"rstrip":false,"normalized":false},{"id":30141,"special":true,"content":"[inst_datainst]","single_word":false,"lstrip":false,"rstrip":false,"normalized":false},{"id":30142,"special":true,"content":"[union_item]","single_word":false,"lstrip":false,"rstrip":false,"normalized":false},{"id":30143,"special":true,"content":"[elif_directive]","single_word":false,"lstrip":false,"rstrip":false,"normalized":false},{"id":30144,"special":true,"content":"[recursive_pattern]","single_word":false,"lstrip":false,"rstrip":false,"normalized":false},{"id":30145,"special":true,"content":"[via]","single_word":false,"lstrip":false,"rstrip":false,"normalized":false},{"id":30146,"special":true,"content":"[data_family]","single_word":false,"lstrip":false,"rstrip":false,"normalized":false},{"id":30147,"special":true,"content":"[jsx_fragment]","single_word":false,"lstrip":false,"rstrip":false,"normalized":false},{"id":30148,"special":true,"content":"[module_directive]","single_word":false,"lstrip":false,"rstrip":false,"normalized":false},{"id":30149,"special":true,"content":"[instantiated_class_type]","single_word":false,"lstrip":false,"rstrip":false,"normalized":false},{"id":30150,"special":true,"content":"[ref_qualifier]","single_word":false,"lstrip":false,"rstrip":false,"normalized":false},{"id":30151,"special":true,"content":"[class_initializer]","single_word":false,"lstrip":false,"rstrip":false,"normalized":false},{"id":30152,"special":true,"content":"[implicit_param]","single_word":false,"lstrip":false,"rstrip":false,"normalized":false},{"id":30153,"special":true,"content":"[empty_file]","single_word":false,"lstrip":false,"rstrip":false,"normalized":false},{"id":30154,"special":true,"content":"[ticked]","single_word":false,"lstrip":false,"rstrip":false,"normalized":false},{"id":30155,"special":true,"content":"[supports_statement]","single_word":false,"lstrip":false,"rstrip":false,"normalized":false},{"id":30156,"special":true,"content":"[structured_binding_declarator]","single_word":false,"lstrip":false,"rstrip":false,"normalized":false},{"id":30157,"special":true,"content":"[constructor_constraint]","single_word":false,"lstrip":false,"rstrip":false,"normalized":false},{"id":30158,"special":true,"content":"[instance_variable_specification]","single_word":false,"lstrip":false,"rstrip":false,"normalized":false},{"id":30159,"special":true,"content":"[generic_type_with_turbofish]","single_word":false,"lstrip":false,"rstrip":false,"normalized":false},{"id":30160,"special":true,"content":"[default_signature]","single_word":false,"lstrip":false,"rstrip":false,"normalized":false},{"id":30161,"special":true,"content":"[preproc_string_literal]","single_word":false,"lstrip":false,"rstrip":false,"normalized":false},{"id":30162,"special":true,"content":"[checked_statement]","single_word":false,"lstrip":false,"rstrip":false,"normalized":false},{"id":30163,"special":true,"content":"[type_conversion]","single_word":false,"lstrip":false,"rstrip":false,"normalized":false},{"id":30164,"special":true,"content":"[signed_number]","single_word":false,"lstrip":false,"rstrip":false,"normalized":false},{"id":30165,"special":true,"content":"[preproc_integer_literal]","single_word":false,"lstrip":false,"rstrip":false,"normalized":false},{"id":30166,"special":true,"content":"[decl_type]","single_word":false,"lstrip":false,"rstrip":false,"normalized":false},{"id":30167,"special":true,"content":"[override_modifier]","single_word":false,"lstrip":false,"rstrip":false,"normalized":false},{"id":30168,"special":true,"content":"[event_declaration]","single_word":false,"lstrip":false,"rstrip":false,"normalized":false},{"id":30169,"special":true,"content":"[contravariant_type_parameter]","single_word":false,"lstrip":false,"rstrip":false,"normalized":false},{"id":30170,"special":true,"content":"[data_instance]","single_word":false,"lstrip":false,"rstrip":false,"normalized":false},{"id":30171,"special":true,"content":"[lower_bound]","single_word":false,"lstrip":false,"rstrip":false,"normalized":false},{"id":30172,"special":true,"content":"[attribute_target_specifier]","single_word":false,"lstrip":false,"rstrip":false,"normalized":false},{"id":30173,"special":true,"content":"[for]","single_word":false,"lstrip":false,"rstrip":false,"normalized":false},{"id":30174,"special":true,"content":"[in]","single_word":false,"lstrip":false,"rstrip":false,"normalized":false},{"id":30175,"special":true,"content":"[interpolation_format_clause]","single_word":false,"lstrip":false,"rstrip":false,"normalized":false},{"id":30176,"special":true,"content":"[abstract_class_declaration]","single_word":false,"lstrip":false,"rstrip":false,"normalized":false},{"id":30177,"special":true,"content":"[chevron]","single_word":false,"lstrip":false,"rstrip":false,"normalized":false},{"id":30178,"special":true,"content":"[variadic_unpacking]","single_word":false,"lstrip":false,"rstrip":false,"normalized":false},{"id":30179,"special":true,"content":"[generator_function]","single_word":false,"lstrip":false,"rstrip":false,"normalized":false},{"id":30180,"special":true,"content":"[fundeps]","single_word":false,"lstrip":false,"rstrip":false,"normalized":false},{"id":30181,"special":true,"content":"[set_comprehension]","single_word":false,"lstrip":false,"rstrip":false,"normalized":false},{"id":30182,"special":true,"content":"[typed_module_expression]","single_word":false,"lstrip":false,"rstrip":false,"normalized":false},{"id":30183,"special":true,"content":"[generator_function_declaration]","single_word":false,"lstrip":false,"rstrip":false,"normalized":false},{"id":30184,"special":true,"content":"[trait_declaration]","single_word":false,"lstrip":false,"rstrip":false,"normalized":false},{"id":30185,"special":true,"content":"[fixed_statement]","single_word":false,"lstrip":false,"rstrip":false,"normalized":false},{"id":30186,"special":true,"content":"[indexing_operator_path]","single_word":false,"lstrip":false,"rstrip":false,"normalized":false},{"id":30187,"special":true,"content":"[negated_pattern]","single_word":false,"lstrip":false,"rstrip":false,"normalized":false},{"id":30188,"special":true,"content":"[parenthesized_query]","single_word":false,"lstrip":false,"rstrip":false,"normalized":false},{"id":30189,"special":true,"content":"[higher_ranked_trait_bound]","single_word":false,"lstrip":false,"rstrip":false,"normalized":false},{"id":30190,"special":true,"content":"[instantiated_class]","single_word":false,"lstrip":false,"rstrip":false,"normalized":false},{"id":30191,"special":true,"content":"[discard]","single_word":false,"lstrip":false,"rstrip":false,"normalized":false},{"id":30192,"special":true,"content":"[module_type_of]","single_word":false,"lstrip":false,"rstrip":false,"normalized":false},{"id":30193,"special":true,"content":"[import_alias]","single_word":false,"lstrip":false,"rstrip":false,"normalized":false},{"id":30194,"special":true,"content":"[class_function_type]","single_word":false,"lstrip":false,"rstrip":false,"normalized":false},{"id":30195,"special":true,"content":"[charset_statement]","single_word":false,"lstrip":false,"rstrip":false,"normalized":false},{"id":30196,"special":true,"content":"[annotation_type_declaration]","single_word":false,"lstrip":false,"rstrip":false,"normalized":false},{"id":30197,"special":true,"content":"[annotation_type_body]","single_word":false,"lstrip":false,"rstrip":false,"normalized":false},{"id":30198,"special":true,"content":"[implicit_parid]","single_word":false,"lstrip":false,"rstrip":false,"normalized":false},{"id":30199,"special":true,"content":"[format_specifier]","single_word":false,"lstrip":false,"rstrip":false,"normalized":false},{"id":30200,"special":true,"content":"[fallthrough_statement]","single_word":false,"lstrip":false,"rstrip":false,"normalized":false},{"id":30201,"special":true,"content":"[rescue_modifier]","single_word":false,"lstrip":false,"rstrip":false,"normalized":false},{"id":30202,"special":true,"content":"[anonymous_method_expression]","single_word":false,"lstrip":false,"rstrip":false,"normalized":false},{"id":30203,"special":true,"content":"[quote_statement]","single_word":false,"lstrip":false,"rstrip":false,"normalized":false},{"id":30204,"special":true,"content":"[fundep]","single_word":false,"lstrip":false,"rstrip":false,"normalized":false},{"id":30205,"special":true,"content":"[annotation_type_element_declaration]","single_word":false,"lstrip":false,"rstrip":false,"normalized":false},{"id":30206,"special":true,"content":"[indexer_declaration]","single_word":false,"lstrip":false,"rstrip":false,"normalized":false},{"id":30207,"special":true,"content":"[bracketed_parameter_list]","single_word":false,"lstrip":false,"rstrip":false,"normalized":false},{"id":30208,"special":true,"content":"[attribute_declaration]","single_word":false,"lstrip":false,"rstrip":false,"normalized":false},{"id":30209,"special":true,"content":"[operator_cast]","single_word":false,"lstrip":false,"rstrip":false,"normalized":false},{"id":30210,"special":true,"content":"[captured_pattern]","single_word":false,"lstrip":false,"rstrip":false,"normalized":false},{"id":30211,"special":true,"content":"[empty_type]","single_word":false,"lstrip":false,"rstrip":false,"normalized":false},{"id":30212,"special":true,"content":"[indexing_operator]","single_word":false,"lstrip":false,"rstrip":false,"normalized":false},{"id":30213,"special":true,"content":"[infer_type]","single_word":false,"lstrip":false,"rstrip":false,"normalized":false},{"id":30214,"special":true,"content":"[object_copy_expression]","single_word":false,"lstrip":false,"rstrip":false,"normalized":false},{"id":30215,"special":true,"content":"[toplevel_directive]","single_word":false,"lstrip":false,"rstrip":false,"normalized":false},{"id":30216,"special":true,"content":"[directive]","single_word":false,"lstrip":false,"rstrip":false,"normalized":false},{"id":30217,"special":true,"content":"[mapped_type_clause]","single_word":false,"lstrip":false,"rstrip":false,"normalized":false},{"id":30218,"special":true,"content":"[hash_type]","single_word":false,"lstrip":false,"rstrip":false,"normalized":false},{"id":30219,"special":true,"content":"[nullable_directive]","single_word":false,"lstrip":false,"rstrip":false,"normalized":false},{"id":30220,"special":true,"content":"[import_package]","single_word":false,"lstrip":false,"rstrip":false,"normalized":false},{"id":30221,"special":true,"content":"[functor_type]","single_word":false,"lstrip":false,"rstrip":false,"normalized":false},{"id":30222,"special":true,"content":"[conversion_operator_declaration]","single_word":false,"lstrip":false,"rstrip":false,"normalized":false},{"id":30223,"special":true,"content":"[throw_specifier]","single_word":false,"lstrip":false,"rstrip":false,"normalized":false},{"id":30224,"special":true,"content":"[destructured_parameter]","single_word":false,"lstrip":false,"rstrip":false,"normalized":false},{"id":30225,"special":true,"content":"[dynamic_variable_name]","single_word":false,"lstrip":false,"rstrip":false,"normalized":false},{"id":30226,"special":true,"content":"[query_expression]","single_word":false,"lstrip":false,"rstrip":false,"normalized":false},{"id":30227,"special":true,"content":"[select_clause]","single_word":false,"lstrip":false,"rstrip":false,"normalized":false},{"id":30228,"special":true,"content":"[size_of_expression]","single_word":false,"lstrip":false,"rstrip":false,"normalized":false},{"id":30229,"special":true,"content":"[readonly_type]","single_word":false,"lstrip":false,"rstrip":false,"normalized":false},{"id":30230,"special":true,"content":"[symbol_literal]","single_word":false,"lstrip":false,"rstrip":false,"normalized":false},{"id":30231,"special":true,"content":"[is_expression]","single_word":false,"lstrip":false,"rstrip":false,"normalized":false},{"id":30232,"special":true,"content":"[abstract_method_signature]","single_word":false,"lstrip":false,"rstrip":false,"normalized":false},{"id":30233,"special":true,"content":"[template_template_parameter_declaration]","single_word":false,"lstrip":false,"rstrip":false,"normalized":false},{"id":30234,"special":true,"content":"[package_type]","single_word":false,"lstrip":false,"rstrip":false,"normalized":false},{"id":30235,"special":true,"content":"[construct_signature]","single_word":false,"lstrip":false,"rstrip":false,"normalized":false},{"id":30236,"special":true,"content":"[blank_identifier]","single_word":false,"lstrip":false,"rstrip":false,"normalized":false},{"id":30237,"special":true,"content":"[from_clause]","single_word":false,"lstrip":false,"rstrip":false,"normalized":false},{"id":30238,"special":true,"content":"[local_function_statement]","single_word":false,"lstrip":false,"rstrip":false,"normalized":false},{"id":30239,"special":true,"content":"[loop_label]","single_word":false,"lstrip":false,"rstrip":false,"normalized":false},{"id":30240,"special":true,"content":"[instance_variable_expression]","single_word":false,"lstrip":false,"rstrip":false,"normalized":false},{"id":30241,"special":true,"content":"[dot]","single_word":false,"lstrip":false,"rstrip":false,"normalized":false},{"id":30242,"special":true,"content":"[qualified_constructor_operator]","single_word":false,"lstrip":false,"rstrip":false,"normalized":false},{"id":30243,"special":true,"content":"[projected_type]","single_word":false,"lstrip":false,"rstrip":false,"normalized":false},{"id":30244,"special":true,"content":"[and_operator]","single_word":false,"lstrip":false,"rstrip":false,"normalized":false},{"id":30245,"special":true,"content":"[pat_irrefutable]","single_word":false,"lstrip":false,"rstrip":false,"normalized":false},{"id":30246,"special":true,"content":"[exp_unboxed_tuple]","single_word":false,"lstrip":false,"rstrip":false,"normalized":false},{"id":30247,"special":true,"content":"[case_pattern_switch_label]","single_word":false,"lstrip":false,"rstrip":false,"normalized":false},{"id":30248,"special":true,"content":"[local_open_pattern]","single_word":false,"lstrip":false,"rstrip":false,"normalized":false},{"id":30249,"special":true,"content":"[clone_expression]","single_word":false,"lstrip":false,"rstrip":false,"normalized":false},{"id":30250,"special":true,"content":"[subshell]","single_word":false,"lstrip":false,"rstrip":false,"normalized":false},{"id":30251,"special":true,"content":"[const_parameter]","single_word":false,"lstrip":false,"rstrip":false,"normalized":false},{"id":30252,"special":true,"content":"[package_object]","single_word":false,"lstrip":false,"rstrip":false,"normalized":false},{"id":30253,"special":true,"content":"[pat_unboxed_tuple]","single_word":false,"lstrip":false,"rstrip":false,"normalized":false},{"id":30254,"special":true,"content":"[slice_pattern]","single_word":false,"lstrip":false,"rstrip":false,"normalized":false},{"id":30255,"special":true,"content":"[variadic_declarator]","single_word":false,"lstrip":false,"rstrip":false,"normalized":false},{"id":30256,"special":true,"content":"[aliased_type]","single_word":false,"lstrip":false,"rstrip":false,"normalized":false},{"id":30257,"special":true,"content":"[enum_body_declarations]","single_word":false,"lstrip":false,"rstrip":false,"normalized":false},{"id":30258,"special":true,"content":"[include_once_expression]","single_word":false,"lstrip":false,"rstrip":false,"normalized":false},{"id":30259,"special":true,"content":"[covariant_type_parameter]","single_word":false,"lstrip":false,"rstrip":false,"normalized":false},{"id":30260,"special":true,"content":"[polymorphic_variant_pattern]","single_word":false,"lstrip":false,"rstrip":false,"normalized":false},{"id":30261,"special":true,"content":"[function_static_declaration]","single_word":false,"lstrip":false,"rstrip":false,"normalized":false},{"id":30262,"special":true,"content":"[line_directive]","single_word":false,"lstrip":false,"rstrip":false,"normalized":false},{"id":30263,"special":true,"content":"[bigarray_get_expression]","single_word":false,"lstrip":false,"rstrip":false,"normalized":false},{"id":30264,"special":true,"content":"[conditional_type]","single_word":false,"lstrip":false,"rstrip":false,"normalized":false},{"id":30265,"special":true,"content":"[static_variable_declaration]","single_word":false,"lstrip":false,"rstrip":false,"normalized":false},{"id":30266,"special":true,"content":"[right_assignment_list]","single_word":false,"lstrip":false,"rstrip":false,"normalized":false},{"id":30267,"special":true,"content":"[private_property_identifier]","single_word":false,"lstrip":false,"rstrip":false,"normalized":false},{"id":30268,"special":true,"content":"[optional_type_parameter]","single_word":false,"lstrip":false,"rstrip":false,"normalized":false},{"id":30269,"special":true,"content":"[namespace_definition_name]","single_word":false,"lstrip":false,"rstrip":false,"normalized":false},{"id":30270,"special":true,"content":"[constrain_module]","single_word":false,"lstrip":false,"rstrip":false,"normalized":false},{"id":30271,"special":true,"content":"[class_application]","single_word":false,"lstrip":false,"rstrip":false,"normalized":false},{"id":30272,"special":true,"content":"[abstract_parenthesized_declarator]","single_word":false,"lstrip":false,"rstrip":false,"normalized":false},{"id":30273,"special":true,"content":"[delegate_declaration]","single_word":false,"lstrip":false,"rstrip":false,"normalized":false},{"id":30274,"special":true,"content":"[packed_module]","single_word":false,"lstrip":false,"rstrip":false,"normalized":false},{"id":30275,"special":true,"content":"[variadic_type_parameter_declaration]","single_word":false,"lstrip":false,"rstrip":false,"normalized":false},{"id":30276,"special":true,"content":"[class_type_definition]","single_word":false,"lstrip":false,"rstrip":false,"normalized":false},{"id":30277,"special":true,"content":"[inheritance_specification]","single_word":false,"lstrip":false,"rstrip":false,"normalized":false},{"id":30278,"special":true,"content":"[decltype]","single_word":false,"lstrip":false,"rstrip":false,"normalized":false},{"id":30279,"special":true,"content":"[chained_string]","single_word":false,"lstrip":false,"rstrip":false,"normalized":false},{"id":30280,"special":true,"content":"[alias]","single_word":false,"lstrip":false,"rstrip":false,"normalized":false},{"id":30281,"special":true,"content":"[fixity]","single_word":false,"lstrip":false,"rstrip":false,"normalized":false},{"id":30282,"special":true,"content":"[package_pattern]","single_word":false,"lstrip":false,"rstrip":false,"normalized":false},{"id":30283,"special":true,"content":"[operator_declaration]","single_word":false,"lstrip":false,"rstrip":false,"normalized":false},{"id":30284,"special":true,"content":"[implicit_length_array_type]","single_word":false,"lstrip":false,"rstrip":false,"normalized":false},{"id":30285,"special":true,"content":"[import_require_clause]","single_word":false,"lstrip":false,"rstrip":false,"normalized":false},{"id":30286,"special":true,"content":"[singleton_class]","single_word":false,"lstrip":false,"rstrip":false,"normalized":false},{"id":30287,"special":true,"content":"[heredoc]","single_word":false,"lstrip":false,"rstrip":false,"normalized":false},{"id":30288,"special":true,"content":"[setter]","single_word":false,"lstrip":false,"rstrip":false,"normalized":false},{"id":30289,"special":true,"content":"[constrained_parameter]","single_word":false,"lstrip":false,"rstrip":false,"normalized":false},{"id":30290,"special":true,"content":"[label]","single_word":false,"lstrip":false,"rstrip":false,"normalized":false},{"id":30291,"special":true,"content":"[delete_method_clause]","single_word":false,"lstrip":false,"rstrip":false,"normalized":false},{"id":30292,"special":true,"content":"[symbol_array]","single_word":false,"lstrip":false,"rstrip":false,"normalized":false},{"id":30293,"special":true,"content":"[parameter_pack_expansion]","single_word":false,"lstrip":false,"rstrip":false,"normalized":false},{"id":30294,"special":true,"content":"[ensure]","single_word":false,"lstrip":false,"rstrip":false,"normalized":false},{"id":30295,"special":true,"content":"[static_initializer]","single_word":false,"lstrip":false,"rstrip":false,"normalized":false},{"id":30296,"special":true,"content":"[floating_attribute]","single_word":false,"lstrip":false,"rstrip":false,"normalized":false},{"id":30297,"special":true,"content":"[element_binding_expression]","single_word":false,"lstrip":false,"rstrip":false,"normalized":false},{"id":30298,"special":true,"content":"[while]","single_word":false,"lstrip":false,"rstrip":false,"normalized":false},{"id":30299,"special":true,"content":"[type_star]","single_word":false,"lstrip":false,"rstrip":false,"normalized":false},{"id":30300,"special":true,"content":"[variadic_parameter]","single_word":false,"lstrip":false,"rstrip":false,"normalized":false},{"id":30301,"special":true,"content":"[event_field_declaration]","single_word":false,"lstrip":false,"rstrip":false,"normalized":false},{"id":30302,"special":true,"content":"[break]","single_word":false,"lstrip":false,"rstrip":false,"normalized":false},{"id":30303,"special":true,"content":"[template_instantiation]","single_word":false,"lstrip":false,"rstrip":false,"normalized":false},{"id":30304,"special":true,"content":"[val_declaration]","single_word":false,"lstrip":false,"rstrip":false,"normalized":false},{"id":30305,"special":true,"content":"[type_family]","single_word":false,"lstrip":false,"rstrip":false,"normalized":false},{"id":30306,"special":true,"content":"[extends_interfaces]","single_word":false,"lstrip":false,"rstrip":false,"normalized":false},{"id":30307,"special":true,"content":"[head]","single_word":false,"lstrip":false,"rstrip":false,"normalized":false},{"id":30308,"special":true,"content":"[namespace]","single_word":false,"lstrip":false,"rstrip":false,"normalized":false},{"id":30309,"special":true,"content":"[class_type_binding]","single_word":false,"lstrip":false,"rstrip":false,"normalized":false},{"id":30310,"special":true,"content":"[final_modifier]","single_word":false,"lstrip":false,"rstrip":false,"normalized":false},{"id":30311,"special":true,"content":"[new_declarator]","single_word":false,"lstrip":false,"rstrip":false,"normalized":false},{"id":30312,"special":true,"content":"[command_string]","single_word":false,"lstrip":false,"rstrip":false,"normalized":false},{"id":30313,"special":true,"content":"[con_tuple]","single_word":false,"lstrip":false,"rstrip":false,"normalized":false},{"id":30314,"special":true,"content":"[include_expression]","single_word":false,"lstrip":false,"rstrip":false,"normalized":false},{"id":30315,"special":true,"content":"[line_number_directive]","single_word":false,"lstrip":false,"rstrip":false,"normalized":false},{"id":30316,"special":true,"content":"[class_literal]","single_word":false,"lstrip":false,"rstrip":false,"normalized":false},{"id":30317,"special":true,"content":"[capture_pattern]","single_word":false,"lstrip":false,"rstrip":false,"normalized":false},{"id":30318,"special":true,"content":"[by_ref]","single_word":false,"lstrip":false,"rstrip":false,"normalized":false},{"id":30319,"special":true,"content":"[type_predicate_annotation]","single_word":false,"lstrip":false,"rstrip":false,"normalized":false},{"id":30320,"special":true,"content":"[let_statement]","single_word":false,"lstrip":false,"rstrip":false,"normalized":false},{"id":30321,"special":true,"content":"[class_body_type]","single_word":false,"lstrip":false,"rstrip":false,"normalized":false},{"id":30322,"special":true,"content":"[switch_expression_arm]","single_word":false,"lstrip":false,"rstrip":false,"normalized":false},{"id":30323,"special":true,"content":"[abstract_definition]","single_word":false,"lstrip":false,"rstrip":false,"normalized":false},{"id":30324,"special":true,"content":"[type_bound]","single_word":false,"lstrip":false,"rstrip":false,"normalized":false},{"id":30325,"special":true,"content":"[hex_floating_point_literal]","single_word":false,"lstrip":false,"rstrip":false,"normalized":false},{"id":30326,"special":true,"content":"[else_directive]","single_word":false,"lstrip":false,"rstrip":false,"normalized":false},{"id":30327,"special":true,"content":"[implicit_object_creation_expression]","single_word":false,"lstrip":false,"rstrip":false,"normalized":false},{"id":30328,"special":true,"content":"[inferred_parameters]","single_word":false,"lstrip":false,"rstrip":false,"normalized":false},{"id":30329,"special":true,"content":"[abstract_modifier]","single_word":false,"lstrip":false,"rstrip":false,"normalized":false},{"id":30330,"special":true,"content":"[reference_assignment_expression]","single_word":false,"lstrip":false,"rstrip":false,"normalized":false},{"id":30331,"special":true,"content":"[lock_statement]","single_word":false,"lstrip":false,"rstrip":false,"normalized":false},{"id":30332,"special":true,"content":"[index_type_query]","single_word":false,"lstrip":false,"rstrip":false,"normalized":false},{"id":30333,"special":true,"content":"[type_predicate]","single_word":false,"lstrip":false,"rstrip":false,"normalized":false},{"id":30334,"special":true,"content":"[class_variable]","single_word":false,"lstrip":false,"rstrip":false,"normalized":false},{"id":30335,"special":true,"content":"[object_assignment_pattern]","single_word":false,"lstrip":false,"rstrip":false,"normalized":false},{"id":30336,"special":true,"content":"[struct_declaration]","single_word":false,"lstrip":false,"rstrip":false,"normalized":false},{"id":30337,"special":true,"content":"[type_instance]","single_word":false,"lstrip":false,"rstrip":false,"normalized":false},{"id":30338,"special":true,"content":"[tuple_element]","single_word":false,"lstrip":false,"rstrip":false,"normalized":false},{"id":30339,"special":true,"content":"[safety]","single_word":false,"lstrip":false,"rstrip":false,"normalized":false},{"id":30340,"special":true,"content":"[nesting_selector]","single_word":false,"lstrip":false,"rstrip":false,"normalized":false},{"id":30341,"special":true,"content":"[var_modifier]","single_word":false,"lstrip":false,"rstrip":false,"normalized":false},{"id":30342,"special":true,"content":"[checked_expression]","single_word":false,"lstrip":false,"rstrip":false,"normalized":false},{"id":30343,"special":true,"content":"[field_definition]","single_word":false,"lstrip":false,"rstrip":false,"normalized":false},{"id":30344,"special":true,"content":"[do]","single_word":false,"lstrip":false,"rstrip":false,"normalized":false},{"id":30345,"special":true,"content":"[anonymous_function_use_clause]","single_word":false,"lstrip":false,"rstrip":false,"normalized":false},{"id":30346,"special":true,"content":"[from]","single_word":false,"lstrip":false,"rstrip":false,"normalized":false},{"id":30347,"special":true,"content":"[lazy_parameter_type]","single_word":false,"lstrip":false,"rstrip":false,"normalized":false},{"id":30348,"special":true,"content":"[associated_type]","single_word":false,"lstrip":false,"rstrip":false,"normalized":false},{"id":30349,"special":true,"content":"[while_let_expression]","single_word":false,"lstrip":false,"rstrip":false,"normalized":false},{"id":30350,"special":true,"content":"[require_expression]","single_word":false,"lstrip":false,"rstrip":false,"normalized":false},{"id":30351,"special":true,"content":"[default_statement]","single_word":false,"lstrip":false,"rstrip":false,"normalized":false},{"id":30352,"special":true,"content":"[pat_view]","single_word":false,"lstrip":false,"rstrip":false,"normalized":false},{"id":30353,"special":true,"content":"[dictionary_comprehension]","single_word":false,"lstrip":false,"rstrip":false,"normalized":false},{"id":30354,"special":true,"content":"[let_class_expression]","single_word":false,"lstrip":false,"rstrip":false,"normalized":false},{"id":30355,"special":true,"content":"[alternative_pattern]","single_word":false,"lstrip":false,"rstrip":false,"normalized":false},{"id":30356,"special":true,"content":"[removed_trait_bound]","single_word":false,"lstrip":false,"rstrip":false,"normalized":false},{"id":30357,"special":true,"content":"[synchronized_statement]","single_word":false,"lstrip":false,"rstrip":false,"normalized":false},{"id":30358,"special":true,"content":"[dependent_name]","single_word":false,"lstrip":false,"rstrip":false,"normalized":false},{"id":30359,"special":true,"content":"[hash_splat_argument]","single_word":false,"lstrip":false,"rstrip":false,"normalized":false},{"id":30360,"special":true,"content":"[trailing_return_type]","single_word":false,"lstrip":false,"rstrip":false,"normalized":false},{"id":30361,"special":true,"content":"[async_block]","single_word":false,"lstrip":false,"rstrip":false,"normalized":false},{"id":30362,"special":true,"content":"[foreign_mod_item]","single_word":false,"lstrip":false,"rstrip":false,"normalized":false},{"id":30363,"special":true,"content":"[inheritance_definition]","single_word":false,"lstrip":false,"rstrip":false,"normalized":false},{"id":30364,"special":true,"content":"[namespace_aliasing_clause]","single_word":false,"lstrip":false,"rstrip":false,"normalized":false},{"id":30365,"special":true,"content":"[try_with_resources_statement]","single_word":false,"lstrip":false,"rstrip":false,"normalized":false},{"id":30366,"special":true,"content":"[resource_specification]","single_word":false,"lstrip":false,"rstrip":false,"normalized":false},{"id":30367,"special":true,"content":"[default_method_clause]","single_word":false,"lstrip":false,"rstrip":false,"normalized":false},{"id":30368,"special":true,"content":"[friend_declaration]","single_word":false,"lstrip":false,"rstrip":false,"normalized":false},{"id":30369,"special":true,"content":"[call_signature]","single_word":false,"lstrip":false,"rstrip":false,"normalized":false},{"id":30370,"special":true,"content":"[list_literal]","single_word":false,"lstrip":false,"rstrip":false,"normalized":false},{"id":30371,"special":true,"content":"[extends_type_clause]","single_word":false,"lstrip":false,"rstrip":false,"normalized":false},{"id":30372,"special":true,"content":"[user_defined_literal]","single_word":false,"lstrip":false,"rstrip":false,"normalized":false},{"id":30373,"special":true,"content":"[literal_suffix]","single_word":false,"lstrip":false,"rstrip":false,"normalized":false},{"id":30374,"special":true,"content":"[lazy_expression]","single_word":false,"lstrip":false,"rstrip":false,"normalized":false},{"id":30375,"special":true,"content":"[default_type]","single_word":false,"lstrip":false,"rstrip":false,"normalized":false},{"id":30376,"special":true,"content":"[anonymous_object_creation_expression]","single_word":false,"lstrip":false,"rstrip":false,"normalized":false},{"id":30377,"special":true,"content":"[class_type_path]","single_word":false,"lstrip":false,"rstrip":false,"normalized":false},{"id":30378,"special":true,"content":"[coercion_expression]","single_word":false,"lstrip":false,"rstrip":false,"normalized":false},{"id":30379,"special":true,"content":"[impent]","single_word":false,"lstrip":false,"rstrip":false,"normalized":false},{"id":30380,"special":true,"content":"[yield_expression]","single_word":false,"lstrip":false,"rstrip":false,"normalized":false},{"id":30381,"special":true,"content":"[method_type]","single_word":false,"lstrip":false,"rstrip":false,"normalized":false},{"id":30382,"special":true,"content":"[type_constraint]","single_word":false,"lstrip":false,"rstrip":false,"normalized":false},{"id":30383,"special":true,"content":"[renamed_identifier]","single_word":false,"lstrip":false,"rstrip":false,"normalized":false},{"id":30384,"special":true,"content":"[default_switch_label]","single_word":false,"lstrip":false,"rstrip":false,"normalized":false},{"id":30385,"special":true,"content":"[foreign_import]","single_word":false,"lstrip":false,"rstrip":false,"normalized":false},{"id":30386,"special":true,"content":"[resource]","single_word":false,"lstrip":false,"rstrip":false,"normalized":false},{"id":30387,"special":true,"content":"[optional_type]","single_word":false,"lstrip":false,"rstrip":false,"normalized":false},{"id":30388,"special":true,"content":"[parenthesized_value]","single_word":false,"lstrip":false,"rstrip":false,"normalized":false},{"id":30389,"special":true,"content":"[exception_pattern]","single_word":false,"lstrip":false,"rstrip":false,"normalized":false},{"id":30390,"special":true,"content":"[calling_convention]","single_word":false,"lstrip":false,"rstrip":false,"normalized":false},{"id":30391,"special":true,"content":"[range_pattern]","single_word":false,"lstrip":false,"rstrip":false,"normalized":false},{"id":30392,"special":true,"content":"[abstract_array_declarator]","single_word":false,"lstrip":false,"rstrip":false,"normalized":false},{"id":30393,"special":true,"content":"[type_parameter_constraints_clause]","single_word":false,"lstrip":false,"rstrip":false,"normalized":false},{"id":30394,"special":true,"content":"[deriving_declaration]","single_word":false,"lstrip":false,"rstrip":false,"normalized":false},{"id":30395,"special":true,"content":"[global_statement]","single_word":false,"lstrip":false,"rstrip":false,"normalized":false},{"id":30396,"special":true,"content":"[to]","single_word":false,"lstrip":false,"rstrip":false,"normalized":false},{"id":30397,"special":true,"content":"[attribute_specifier]","single_word":false,"lstrip":false,"rstrip":false,"normalized":false},{"id":30398,"special":true,"content":"[linkage_specification]","single_word":false,"lstrip":false,"rstrip":false,"normalized":false},{"id":30399,"special":true,"content":"[select_statement]","single_word":false,"lstrip":false,"rstrip":false,"normalized":false},{"id":30400,"special":true,"content":"[explicit_function_specifier]","single_word":false,"lstrip":false,"rstrip":false,"normalized":false},{"id":30401,"special":true,"content":"[block_parameter]","single_word":false,"lstrip":false,"rstrip":false,"normalized":false},{"id":30402,"special":true,"content":"[lambda_default_capture]","single_word":false,"lstrip":false,"rstrip":false,"normalized":false},{"id":30403,"special":true,"content":"[pragma_directive]","single_word":false,"lstrip":false,"rstrip":false,"normalized":false},{"id":30404,"special":true,"content":"[set]","single_word":false,"lstrip":false,"rstrip":false,"normalized":false},{"id":30405,"special":true,"content":"[next]","single_word":false,"lstrip":false,"rstrip":false,"normalized":false},{"id":30406,"special":true,"content":"[deriving_strategy]","single_word":false,"lstrip":false,"rstrip":false,"normalized":false},{"id":30407,"special":true,"content":"[infix_pattern]","single_word":false,"lstrip":false,"rstrip":false,"normalized":false},{"id":30408,"special":true,"content":"[type_query]","single_word":false,"lstrip":false,"rstrip":false,"normalized":false},{"id":30409,"special":true,"content":"[continue_expression]","single_word":false,"lstrip":false,"rstrip":false,"normalized":false},{"id":30410,"special":true,"content":"[this_type]","single_word":false,"lstrip":false,"rstrip":false,"normalized":false},{"id":30411,"special":true,"content":"[print_intrinsic]","single_word":false,"lstrip":false,"rstrip":false,"normalized":false},{"id":30412,"special":true,"content":"[pair_pattern]","single_word":false,"lstrip":false,"rstrip":false,"normalized":false},{"id":30413,"special":true,"content":"[hash_splat_parameter]","single_word":false,"lstrip":false,"rstrip":false,"normalized":false},{"id":30414,"special":true,"content":"[static_assert_declaration]","single_word":false,"lstrip":false,"rstrip":false,"normalized":false},{"id":30415,"special":true,"content":"[splat_parameter]","single_word":false,"lstrip":false,"rstrip":false,"normalized":false},{"id":30416,"special":true,"content":"[type_assertion]","single_word":false,"lstrip":false,"rstrip":false,"normalized":false},{"id":30417,"special":true,"content":"[case]","single_word":false,"lstrip":false,"rstrip":false,"normalized":false},{"id":30418,"special":true,"content":"[include_module_type]","single_word":false,"lstrip":false,"rstrip":false,"normalized":false},{"id":30419,"special":true,"content":"[exception_variable]","single_word":false,"lstrip":false,"rstrip":false,"normalized":false},{"id":30420,"special":true,"content":"[declare_statement]","single_word":false,"lstrip":false,"rstrip":false,"normalized":false},{"id":30421,"special":true,"content":"[declare_directive]","single_word":false,"lstrip":false,"rstrip":false,"normalized":false},{"id":30422,"special":true,"content":"[let_module_expression]","single_word":false,"lstrip":false,"rstrip":false,"normalized":false},{"id":30423,"special":true,"content":"[declaration_pattern]","single_word":false,"lstrip":false,"rstrip":false,"normalized":false},{"id":30424,"special":true,"content":"[type_switch_statement]","single_word":false,"lstrip":false,"rstrip":false,"normalized":false},{"id":30425,"special":true,"content":"[pat_typed]","single_word":false,"lstrip":false,"rstrip":false,"normalized":false},{"id":30426,"special":true,"content":"[loop_expression]","single_word":false,"lstrip":false,"rstrip":false,"normalized":false},{"id":30427,"special":true,"content":"[interpolated_verbatim_string_text]","single_word":false,"lstrip":false,"rstrip":false,"normalized":false},{"id":30428,"special":true,"content":"[enum_member_declaration_list]","single_word":false,"lstrip":false,"rstrip":false,"normalized":false},{"id":30429,"special":true,"content":"[colon_block]","single_word":false,"lstrip":false,"rstrip":false,"normalized":false},{"id":30430,"special":true,"content":"[element_value_array_initializer]","single_word":false,"lstrip":false,"rstrip":false,"normalized":false},{"id":30431,"special":true,"content":"[switch_default]","single_word":false,"lstrip":false,"rstrip":false,"normalized":false},{"id":30432,"special":true,"content":"[class_binding]","single_word":false,"lstrip":false,"rstrip":false,"normalized":false},{"id":30433,"special":true,"content":"[static_item]","single_word":false,"lstrip":false,"rstrip":false,"normalized":false},{"id":30434,"special":true,"content":"[upper_bound]","single_word":false,"lstrip":false,"rstrip":false,"normalized":false},{"id":30435,"special":true,"content":"[go_statement]","single_word":false,"lstrip":false,"rstrip":false,"normalized":false},{"id":30436,"special":true,"content":"[noexcept]","single_word":false,"lstrip":false,"rstrip":false,"normalized":false},{"id":30437,"special":true,"content":"[implements_clause]","single_word":false,"lstrip":false,"rstrip":false,"normalized":false},{"id":30438,"special":true,"content":"[explicit_interface_specifier]","single_word":false,"lstrip":false,"rstrip":false,"normalized":false},{"id":30439,"special":true,"content":"[class_interface_clause]","single_word":false,"lstrip":false,"rstrip":false,"normalized":false},{"id":30440,"special":true,"content":"[intersection_type]","single_word":false,"lstrip":false,"rstrip":false,"normalized":false},{"id":30441,"special":true,"content":"[repeated_parameter_type]","single_word":false,"lstrip":false,"rstrip":false,"normalized":false},{"id":30442,"special":true,"content":"[type_parameter_constraint]","single_word":false,"lstrip":false,"rstrip":false,"normalized":false},{"id":30443,"special":true,"content":"[global_declaration]","single_word":false,"lstrip":false,"rstrip":false,"normalized":false},{"id":30444,"special":true,"content":"[enum_body]","single_word":false,"lstrip":false,"rstrip":false,"normalized":false},{"id":30445,"special":true,"content":"[polymorphic_type]","single_word":false,"lstrip":false,"rstrip":false,"normalized":false},{"id":30446,"special":true,"content":"[infix_type]","single_word":false,"lstrip":false,"rstrip":false,"normalized":false},{"id":30447,"special":true,"content":"[declaration_expression]","single_word":false,"lstrip":false,"rstrip":false,"normalized":false},{"id":30448,"special":true,"content":"[token_repetition_pattern]","single_word":false,"lstrip":false,"rstrip":false,"normalized":false},{"id":30449,"special":true,"content":"[class_head]","single_word":false,"lstrip":false,"rstrip":false,"normalized":false},{"id":30450,"special":true,"content":"[gadt_constructor]","single_word":false,"lstrip":false,"rstrip":false,"normalized":false},{"id":30451,"special":true,"content":"[class_type_name]","single_word":false,"lstrip":false,"rstrip":false,"normalized":false},{"id":30452,"special":true,"content":"[object_expression]","single_word":false,"lstrip":false,"rstrip":false,"normalized":false},{"id":30453,"special":true,"content":"[computed_property_name]","single_word":false,"lstrip":false,"rstrip":false,"normalized":false},{"id":30454,"special":true,"content":"[instance_variable_definition]","single_word":false,"lstrip":false,"rstrip":false,"normalized":false},{"id":30455,"special":true,"content":"[reference_modifier]","single_word":false,"lstrip":false,"rstrip":false,"normalized":false},{"id":30456,"special":true,"content":"[package_expression]","single_word":false,"lstrip":false,"rstrip":false,"normalized":false},{"id":30457,"special":true,"content":"[unary_query]","single_word":false,"lstrip":false,"rstrip":false,"normalized":false},{"id":30458,"special":true,"content":"[constant_declaration]","single_word":false,"lstrip":false,"rstrip":false,"normalized":false},{"id":30459,"special":true,"content":"[send_statement]","single_word":false,"lstrip":false,"rstrip":false,"normalized":false},{"id":30460,"special":true,"content":"[splat_argument]","single_word":false,"lstrip":false,"rstrip":false,"normalized":false},{"id":30461,"special":true,"content":"[switch_expression]","single_word":false,"lstrip":false,"rstrip":false,"normalized":false},{"id":30462,"special":true,"content":"[wildcard_import]","single_word":false,"lstrip":false,"rstrip":false,"normalized":false},{"id":30463,"special":true,"content":"[left_assignment_list]","single_word":false,"lstrip":false,"rstrip":false,"normalized":false},{"id":30464,"special":true,"content":"[yield_statement]","single_word":false,"lstrip":false,"rstrip":false,"normalized":false},{"id":30465,"special":true,"content":"[spread_parameter]","single_word":false,"lstrip":false,"rstrip":false,"normalized":false},{"id":30466,"special":true,"content":"[assignment_pattern]","single_word":false,"lstrip":false,"rstrip":false,"normalized":false},{"id":30467,"special":true,"content":"[range]","single_word":false,"lstrip":false,"rstrip":false,"normalized":false},{"id":30468,"special":true,"content":"[hash_expression]","single_word":false,"lstrip":false,"rstrip":false,"normalized":false},{"id":30469,"special":true,"content":"[hash_operator]","single_word":false,"lstrip":false,"rstrip":false,"normalized":false},{"id":30470,"special":true,"content":"[break_expression]","single_word":false,"lstrip":false,"rstrip":false,"normalized":false},{"id":30471,"special":true,"content":"[bare_symbol]","single_word":false,"lstrip":false,"rstrip":false,"normalized":false},{"id":30472,"special":true,"content":"[delete_statement]","single_word":false,"lstrip":false,"rstrip":false,"normalized":false},{"id":30473,"special":true,"content":"[interface_body]","single_word":false,"lstrip":false,"rstrip":false,"normalized":false},{"id":30474,"special":true,"content":"[receive_statement]","single_word":false,"lstrip":false,"rstrip":false,"normalized":false},{"id":30475,"special":true,"content":"[annotated_type_variable]","single_word":false,"lstrip":false,"rstrip":false,"normalized":false},{"id":30476,"special":true,"content":"[macro_definition]","single_word":false,"lstrip":false,"rstrip":false,"normalized":false},{"id":30477,"special":true,"content":"[exceptions]","single_word":false,"lstrip":false,"rstrip":false,"normalized":false},{"id":30478,"special":true,"content":"[splice]","single_word":false,"lstrip":false,"rstrip":false,"normalized":false},{"id":30479,"special":true,"content":"[pattern_guard]","single_word":false,"lstrip":false,"rstrip":false,"normalized":false},{"id":30480,"special":true,"content":"[optional_type_parameter_declaration]","single_word":false,"lstrip":false,"rstrip":false,"normalized":false},{"id":30481,"special":true,"content":"[begin]","single_word":false,"lstrip":false,"rstrip":false,"normalized":false},{"id":30482,"special":true,"content":"[macro_type_specifier]","single_word":false,"lstrip":false,"rstrip":false,"normalized":false},{"id":30483,"special":true,"content":"[sibling_selector]","single_word":false,"lstrip":false,"rstrip":false,"normalized":false},{"id":30484,"special":true,"content":"[lookup_type]","single_word":false,"lstrip":false,"rstrip":false,"normalized":false},{"id":30485,"special":true,"content":"[token_repetition]","single_word":false,"lstrip":false,"rstrip":false,"normalized":false},{"id":30486,"special":true,"content":"[array_pattern]","single_word":false,"lstrip":false,"rstrip":false,"normalized":false},{"id":30487,"special":true,"content":"[bounded_type]","single_word":false,"lstrip":false,"rstrip":false,"normalized":false},{"id":30488,"special":true,"content":"[unset_statement]","single_word":false,"lstrip":false,"rstrip":false,"normalized":false},{"id":30489,"special":true,"content":"[require_once_expression]","single_word":false,"lstrip":false,"rstrip":false,"normalized":false},{"id":30490,"special":true,"content":"[future_import_statement]","single_word":false,"lstrip":false,"rstrip":false,"normalized":false},{"id":30491,"special":true,"content":"[dec_statement]","single_word":false,"lstrip":false,"rstrip":false,"normalized":false},{"id":30492,"special":true,"content":"[print_statement]","single_word":false,"lstrip":false,"rstrip":false,"normalized":false},{"id":30493,"special":true,"content":"[communication_case]","single_word":false,"lstrip":false,"rstrip":false,"normalized":false},{"id":30494,"special":true,"content":"[exp_th_quoted_name]","single_word":false,"lstrip":false,"rstrip":false,"normalized":false},{"id":30495,"special":true,"content":"[exp_arithmetic_sequence]","single_word":false,"lstrip":false,"rstrip":false,"normalized":false},{"id":30496,"special":true,"content":"[preproc_elif]","single_word":false,"lstrip":false,"rstrip":false,"normalized":false},{"id":30497,"special":true,"content":"[unless]","single_word":false,"lstrip":false,"rstrip":false,"normalized":false},{"id":30498,"special":true,"content":"[implicit_array_creation_expression]","single_word":false,"lstrip":false,"rstrip":false,"normalized":false},{"id":30499,"special":true,"content":"[context_bound]","single_word":false,"lstrip":false,"rstrip":false,"normalized":false},{"id":30500,"special":true,"content":"[if_clause]","single_word":false,"lstrip":false,"rstrip":false,"normalized":false},{"id":30501,"special":true,"content":"[exp_lambda_case]","single_word":false,"lstrip":false,"rstrip":false,"normalized":false},{"id":30502,"special":true,"content":"[index_signature]","single_word":false,"lstrip":false,"rstrip":false,"normalized":false},{"id":30503,"special":true,"content":"[item_extension]","single_word":false,"lstrip":false,"rstrip":false,"normalized":false},{"id":30504,"special":true,"content":"[anonymous_function_creation_expression]","single_word":false,"lstrip":false,"rstrip":false,"normalized":false},{"id":30505,"special":true,"content":"[extern_crate_declaration]","single_word":false,"lstrip":false,"rstrip":false,"normalized":false},{"id":30506,"special":true,"content":"[erroneous_end_tag]","single_word":false,"lstrip":false,"rstrip":false,"normalized":false},{"id":30507,"special":true,"content":"[erroneous_end_tag_name]","single_word":false,"lstrip":false,"rstrip":false,"normalized":false},{"id":30508,"special":true,"content":"[macro_rule]","single_word":false,"lstrip":false,"rstrip":false,"normalized":false},{"id":30509,"special":true,"content":"[delete_expression]","single_word":false,"lstrip":false,"rstrip":false,"normalized":false},{"id":30510,"special":true,"content":"[internal_module]","single_word":false,"lstrip":false,"rstrip":false,"normalized":false},{"id":30511,"special":true,"content":"[rest_pattern]","single_word":false,"lstrip":false,"rstrip":false,"normalized":false},{"id":30512,"special":true,"content":"[elsif]","single_word":false,"lstrip":false,"rstrip":false,"normalized":false},{"id":30513,"special":true,"content":"[use_as_clause]","single_word":false,"lstrip":false,"rstrip":false,"normalized":false},{"id":30514,"special":true,"content":"[rescue]","single_word":false,"lstrip":false,"rstrip":false,"normalized":false},{"id":30515,"special":true,"content":"[non_null_expression]","single_word":false,"lstrip":false,"rstrip":false,"normalized":false},{"id":30516,"special":true,"content":"[exception_definition]","single_word":false,"lstrip":false,"rstrip":false,"normalized":false},{"id":30517,"special":true,"content":"[reference_pattern]","single_word":false,"lstrip":false,"rstrip":false,"normalized":false},{"id":30518,"special":true,"content":"[quoter]","single_word":false,"lstrip":false,"rstrip":false,"normalized":false},{"id":30519,"special":true,"content":"[let_operator]","single_word":false,"lstrip":false,"rstrip":false,"normalized":false},{"id":30520,"special":true,"content":"[infix]","single_word":false,"lstrip":false,"rstrip":false,"normalized":false},{"id":30521,"special":true,"content":"[string_get_expression]","single_word":false,"lstrip":false,"rstrip":false,"normalized":false},{"id":30522,"special":true,"content":"[method_reference]","single_word":false,"lstrip":false,"rstrip":false,"normalized":false},{"id":30523,"special":true,"content":"[pat_list]","single_word":false,"lstrip":false,"rstrip":false,"normalized":false},{"id":30524,"special":true,"content":"[newtype]","single_word":false,"lstrip":false,"rstrip":false,"normalized":false},{"id":30525,"special":true,"content":"[if_directive]","single_word":false,"lstrip":false,"rstrip":false,"normalized":false},{"id":30526,"special":true,"content":"[endif_directive]","single_word":false,"lstrip":false,"rstrip":false,"normalized":false},{"id":30527,"special":true,"content":"[string_array]","single_word":false,"lstrip":false,"rstrip":false,"normalized":false},{"id":30528,"special":true,"content":"[do_statement]","single_word":false,"lstrip":false,"rstrip":false,"normalized":false},{"id":30529,"special":true,"content":"[newtype_constructor]","single_word":false,"lstrip":false,"rstrip":false,"normalized":false},{"id":30530,"special":true,"content":"[access_qualifier]","single_word":false,"lstrip":false,"rstrip":false,"normalized":false},{"id":30531,"special":true,"content":"[trait_item]","single_word":false,"lstrip":false,"rstrip":false,"normalized":false},{"id":30532,"special":true,"content":"[class_path]","single_word":false,"lstrip":false,"rstrip":false,"normalized":false},{"id":30533,"special":true,"content":"[jsx_self_closing_element]","single_word":false,"lstrip":false,"rstrip":false,"normalized":false},{"id":30534,"special":true,"content":"[bracketed_type]","single_word":false,"lstrip":false,"rstrip":false,"normalized":false},{"id":30535,"special":true,"content":"[constant_pattern]","single_word":false,"lstrip":false,"rstrip":false,"normalized":false},{"id":30536,"special":true,"content":"[quasiquote]","single_word":false,"lstrip":false,"rstrip":false,"normalized":false},{"id":30537,"special":true,"content":"[quasiquote_body]","single_word":false,"lstrip":false,"rstrip":false,"normalized":false},{"id":30538,"special":true,"content":"[quasiquote_start]","single_word":false,"lstrip":false,"rstrip":false,"normalized":false},{"id":30539,"special":true,"content":"[quasiquote_bar]","single_word":false,"lstrip":false,"rstrip":false,"normalized":false},{"id":30540,"special":true,"content":"[bindings]","single_word":false,"lstrip":false,"rstrip":false,"normalized":false},{"id":30541,"special":true,"content":"[block_argument]","single_word":false,"lstrip":false,"rstrip":false,"normalized":false},{"id":30542,"special":true,"content":"[module_type_definition]","single_word":false,"lstrip":false,"rstrip":false,"normalized":false},{"id":30543,"special":true,"content":"[extern_modifier]","single_word":false,"lstrip":false,"rstrip":false,"normalized":false},{"id":30544,"special":true,"content":"[alias_declaration]","single_word":false,"lstrip":false,"rstrip":false,"normalized":false},{"id":30545,"special":true,"content":"[inst_tyinst]","single_word":false,"lstrip":false,"rstrip":false,"normalized":false},{"id":30546,"special":true,"content":"[global_attribute_list]","single_word":false,"lstrip":false,"rstrip":false,"normalized":false},{"id":30547,"special":true,"content":"[pat_strict]","single_word":false,"lstrip":false,"rstrip":false,"normalized":false},{"id":30548,"special":true,"content":"[top_splice]","single_word":false,"lstrip":false,"rstrip":false,"normalized":false},{"id":30549,"special":true,"content":"[elseif_clause]","single_word":false,"lstrip":false,"rstrip":false,"normalized":false},{"id":30550,"special":true,"content":"[exp_list_comprehension]","single_word":false,"lstrip":false,"rstrip":false,"normalized":false},{"id":30551,"special":true,"content":"[mut_pattern]","single_word":false,"lstrip":false,"rstrip":false,"normalized":false},{"id":30552,"special":true,"content":"[union_specifier]","single_word":false,"lstrip":false,"rstrip":false,"normalized":false},{"id":30553,"special":true,"content":"[varop]","single_word":false,"lstrip":false,"rstrip":false,"normalized":false},{"id":30554,"special":true,"content":"[conditional]","single_word":false,"lstrip":false,"rstrip":false,"normalized":false},{"id":30555,"special":true,"content":"[enum_declaration]","single_word":false,"lstrip":false,"rstrip":false,"normalized":false},{"id":30556,"special":true,"content":"[base_field_initializer]","single_word":false,"lstrip":false,"rstrip":false,"normalized":false},{"id":30557,"special":true,"content":"[subtype_clause]","single_word":false,"lstrip":false,"rstrip":false,"normalized":false},{"id":30558,"special":true,"content":"[switch_block]","single_word":false,"lstrip":false,"rstrip":false,"normalized":false},{"id":30559,"special":true,"content":"[equation]","single_word":false,"lstrip":false,"rstrip":false,"normalized":false},{"id":30560,"special":true,"content":"[style_element]","single_word":false,"lstrip":false,"rstrip":false,"normalized":false},{"id":30561,"special":true,"content":"[heredoc_beginning]","single_word":false,"lstrip":false,"rstrip":false,"normalized":false},{"id":30562,"special":true,"content":"[heredoc_body]","single_word":false,"lstrip":false,"rstrip":false,"normalized":false},{"id":30563,"special":true,"content":"[heredoc_end]","single_word":false,"lstrip":false,"rstrip":false,"normalized":false},{"id":30564,"special":true,"content":"[gdpat]","single_word":false,"lstrip":false,"rstrip":false,"normalized":false},{"id":30565,"special":true,"content":"[using_statement]","single_word":false,"lstrip":false,"rstrip":false,"normalized":false},{"id":30566,"special":true,"content":"[await]","single_word":false,"lstrip":false,"rstrip":false,"normalized":false},{"id":30567,"special":true,"content":"[while_expression]","single_word":false,"lstrip":false,"rstrip":false,"normalized":false},{"id":30568,"special":true,"content":"[selected_import]","single_word":false,"lstrip":false,"rstrip":false,"normalized":false},{"id":30569,"special":true,"content":"[enumerators]","single_word":false,"lstrip":false,"rstrip":false,"normalized":false},{"id":30570,"special":true,"content":"[is_pattern_expression]","single_word":false,"lstrip":false,"rstrip":false,"normalized":false},{"id":30571,"special":true,"content":"[instance_variable_name]","single_word":false,"lstrip":false,"rstrip":false,"normalized":false},{"id":30572,"special":true,"content":"[include_module]","single_word":false,"lstrip":false,"rstrip":false,"normalized":false},{"id":30573,"special":true,"content":"[ellipsis]","single_word":false,"lstrip":false,"rstrip":false,"normalized":false},{"id":30574,"special":true,"content":"[module_type_constraint]","single_word":false,"lstrip":false,"rstrip":false,"normalized":false},{"id":30575,"special":true,"content":"[base_expression]","single_word":false,"lstrip":false,"rstrip":false,"normalized":false},{"id":30576,"special":true,"content":"[token_tree_pattern]","single_word":false,"lstrip":false,"rstrip":false,"normalized":false},{"id":30577,"special":true,"content":"[member_binding_expression]","single_word":false,"lstrip":false,"rstrip":false,"normalized":false},{"id":30578,"special":true,"content":"[conditional_access_expression]","single_word":false,"lstrip":false,"rstrip":false,"normalized":false},{"id":30579,"special":true,"content":"[namespace_import]","single_word":false,"lstrip":false,"rstrip":false,"normalized":false},{"id":30580,"special":true,"content":"[catch_declaration]","single_word":false,"lstrip":false,"rstrip":false,"normalized":false},{"id":30581,"special":true,"content":"[generator_expression]","single_word":false,"lstrip":false,"rstrip":false,"normalized":false},{"id":30582,"special":true,"content":"[compound_type]","single_word":false,"lstrip":false,"rstrip":false,"normalized":false},{"id":30583,"special":true,"content":"[lambda_capture_specifier]","single_word":false,"lstrip":false,"rstrip":false,"normalized":false},{"id":30584,"special":true,"content":"[dimensions_expr]","single_word":false,"lstrip":false,"rstrip":false,"normalized":false},{"id":30585,"special":true,"content":"[channel_type]","single_word":false,"lstrip":false,"rstrip":false,"normalized":false},{"id":30586,"special":true,"content":"[module_parameter]","single_word":false,"lstrip":false,"rstrip":false,"normalized":false},{"id":30587,"special":true,"content":"[global_variable]","single_word":false,"lstrip":false,"rstrip":false,"normalized":false},{"id":30588,"special":true,"content":"[forall]","single_word":false,"lstrip":false,"rstrip":false,"normalized":false},{"id":30589,"special":true,"content":"[quantifiers]","single_word":false,"lstrip":false,"rstrip":false,"normalized":false},{"id":30590,"special":true,"content":"[keyword_parameters]","single_word":false,"lstrip":false,"rstrip":false,"normalized":false},{"id":30591,"special":true,"content":"[interpolation_expression]","single_word":false,"lstrip":false,"rstrip":false,"normalized":false},{"id":30592,"special":true,"content":"[yield]","single_word":false,"lstrip":false,"rstrip":false,"normalized":false},{"id":30593,"special":true,"content":"[exp_section_right]","single_word":false,"lstrip":false,"rstrip":false,"normalized":false},{"id":30594,"special":true,"content":"[default_expression]","single_word":false,"lstrip":false,"rstrip":false,"normalized":false},{"id":30595,"special":true,"content":"[type_parameter_list]","single_word":false,"lstrip":false,"rstrip":false,"normalized":false},{"id":30596,"special":true,"content":"[list_splat]","single_word":false,"lstrip":false,"rstrip":false,"normalized":false},{"id":30597,"special":true,"content":"[binding]","single_word":false,"lstrip":false,"rstrip":false,"normalized":false},{"id":30598,"special":true,"content":"[universal_selector]","single_word":false,"lstrip":false,"rstrip":false,"normalized":false},{"id":30599,"special":true,"content":"[exp_section_left]","single_word":false,"lstrip":false,"rstrip":false,"normalized":false},{"id":30600,"special":true,"content":"[keyframes_statement]","single_word":false,"lstrip":false,"rstrip":false,"normalized":false},{"id":30601,"special":true,"content":"[keyframes_name]","single_word":false,"lstrip":false,"rstrip":false,"normalized":false},{"id":30602,"special":true,"content":"[keyframe_block_list]","single_word":false,"lstrip":false,"rstrip":false,"normalized":false},{"id":30603,"special":true,"content":"[pattern_synonym]","single_word":false,"lstrip":false,"rstrip":false,"normalized":false},{"id":30604,"special":true,"content":"[array_comprehension_expression]","single_word":false,"lstrip":false,"rstrip":false,"normalized":false},{"id":30605,"special":true,"content":"[else_if_clause]","single_word":false,"lstrip":false,"rstrip":false,"normalized":false},{"id":30606,"special":true,"content":"[constructor_initializer]","single_word":false,"lstrip":false,"rstrip":false,"normalized":false},{"id":30607,"special":true,"content":"[constrain_type]","single_word":false,"lstrip":false,"rstrip":false,"normalized":false},{"id":30608,"special":true,"content":"[list_splat_pattern]","single_word":false,"lstrip":false,"rstrip":false,"normalized":false},{"id":30609,"special":true,"content":"[super_interfaces]","single_word":false,"lstrip":false,"rstrip":false,"normalized":false},{"id":30610,"special":true,"content":"[dynamic_type]","single_word":false,"lstrip":false,"rstrip":false,"normalized":false},{"id":30611,"special":true,"content":"[export_clause]","single_word":false,"lstrip":false,"rstrip":false,"normalized":false},{"id":30612,"special":true,"content":"[qual]","single_word":false,"lstrip":false,"rstrip":false,"normalized":false},{"id":30613,"special":true,"content":"[singleton_method]","single_word":false,"lstrip":false,"rstrip":false,"normalized":false},{"id":30614,"special":true,"content":"[parameter_types]","single_word":false,"lstrip":false,"rstrip":false,"normalized":false},{"id":30615,"special":true,"content":"[at_rule]","single_word":false,"lstrip":false,"rstrip":false,"normalized":false},{"id":30616,"special":true,"content":"[struct_definition]","single_word":false,"lstrip":false,"rstrip":false,"normalized":false},{"id":30617,"special":true,"content":"[inner_attribute_item]","single_word":false,"lstrip":false,"rstrip":false,"normalized":false},{"id":30618,"special":true,"content":"[lambda_parameters]","single_word":false,"lstrip":false,"rstrip":false,"normalized":false},{"id":30619,"special":true,"content":"[remaining_field_pattern]","single_word":false,"lstrip":false,"rstrip":false,"normalized":false},{"id":30620,"special":true,"content":"[switch_body]","single_word":false,"lstrip":false,"rstrip":false,"normalized":false},{"id":30621,"special":true,"content":"[named_field]","single_word":false,"lstrip":false,"rstrip":false,"normalized":false},{"id":30622,"special":true,"content":"[block_comment]","single_word":false,"lstrip":false,"rstrip":false,"normalized":false},{"id":30623,"special":true,"content":"[finally_clause]","single_word":false,"lstrip":false,"rstrip":false,"normalized":false},{"id":30624,"special":true,"content":"[destructor_name]","single_word":false,"lstrip":false,"rstrip":false,"normalized":false},{"id":30625,"special":true,"content":"[exp_type_application]","single_word":false,"lstrip":false,"rstrip":false,"normalized":false},{"id":30626,"special":true,"content":"[compound_literal_expression]","single_word":false,"lstrip":false,"rstrip":false,"normalized":false},{"id":30627,"special":true,"content":"[subscript_designator]","single_word":false,"lstrip":false,"rstrip":false,"normalized":false},{"id":30628,"special":true,"content":"[enum_constant]","single_word":false,"lstrip":false,"rstrip":false,"normalized":false},{"id":30629,"special":true,"content":"[for_range_loop]","single_word":false,"lstrip":false,"rstrip":false,"normalized":false},{"id":30630,"special":true,"content":"[interface_type_list]","single_word":false,"lstrip":false,"rstrip":false,"normalized":false},{"id":30631,"special":true,"content":"[keyword_parameter]","single_word":false,"lstrip":false,"rstrip":false,"normalized":false},{"id":30632,"special":true,"content":"[abstract_type]","single_word":false,"lstrip":false,"rstrip":false,"normalized":false},{"id":30633,"special":true,"content":"[operator_assignment]","single_word":false,"lstrip":false,"rstrip":false,"normalized":false},{"id":30634,"special":true,"content":"[instanceof_expression]","single_word":false,"lstrip":false,"rstrip":false,"normalized":false},{"id":30635,"special":true,"content":"[asterisk]","single_word":false,"lstrip":false,"rstrip":false,"normalized":false},{"id":30636,"special":true,"content":"[enum_assignment]","single_word":false,"lstrip":false,"rstrip":false,"normalized":false},{"id":30637,"special":true,"content":"[spread_expression]","single_word":false,"lstrip":false,"rstrip":false,"normalized":false},{"id":30638,"special":true,"content":"[type_case]","single_word":false,"lstrip":false,"rstrip":false,"normalized":false},{"id":30639,"special":true,"content":"[verbatim_string_literal]","single_word":false,"lstrip":false,"rstrip":false,"normalized":false},{"id":30640,"special":true,"content":"[trait_definition]","single_word":false,"lstrip":false,"rstrip":false,"normalized":false},{"id":30641,"special":true,"content":"[empty_statement]","single_word":false,"lstrip":false,"rstrip":false,"normalized":false},{"id":30642,"special":true,"content":"[when]","single_word":false,"lstrip":false,"rstrip":false,"normalized":false},{"id":30643,"special":true,"content":"[exp_negation]","single_word":false,"lstrip":false,"rstrip":false,"normalized":false},{"id":30644,"special":true,"content":"[parenthesized_operator]","single_word":false,"lstrip":false,"rstrip":false,"normalized":false},{"id":30645,"special":true,"content":"[binary_query]","single_word":false,"lstrip":false,"rstrip":false,"normalized":false},{"id":30646,"special":true,"content":"[dictionary_splat_pattern]","single_word":false,"lstrip":false,"rstrip":false,"normalized":false},{"id":30647,"special":true,"content":"[method_specification]","single_word":false,"lstrip":false,"rstrip":false,"normalized":false},{"id":30648,"special":true,"content":"[scoped_property_access_expression]","single_word":false,"lstrip":false,"rstrip":false,"normalized":false},{"id":30649,"special":true,"content":"[let_open_expression]","single_word":false,"lstrip":false,"rstrip":false,"normalized":false},{"id":30650,"special":true,"content":"[explicit_constructor_invocation]","single_word":false,"lstrip":false,"rstrip":false,"normalized":false},{"id":30651,"special":true,"content":"[region_directive]","single_word":false,"lstrip":false,"rstrip":false,"normalized":false},{"id":30652,"special":true,"content":"[endregion_directive]","single_word":false,"lstrip":false,"rstrip":false,"normalized":false},{"id":30653,"special":true,"content":"[default_case]","single_word":false,"lstrip":false,"rstrip":false,"normalized":false},{"id":30654,"special":true,"content":"[function_signature]","single_word":false,"lstrip":false,"rstrip":false,"normalized":false},{"id":30655,"special":true,"content":"[exp_let_in]","single_word":false,"lstrip":false,"rstrip":false,"normalized":false},{"id":30656,"special":true,"content":"[exp_in]","single_word":false,"lstrip":false,"rstrip":false,"normalized":false},{"id":30657,"special":true,"content":"[exp_let]","single_word":false,"lstrip":false,"rstrip":false,"normalized":false},{"id":30658,"special":true,"content":"[class_heritage]","single_word":false,"lstrip":false,"rstrip":false,"normalized":false},{"id":30659,"special":true,"content":"[type_operator]","single_word":false,"lstrip":false,"rstrip":false,"normalized":false},{"id":30660,"special":true,"content":"[keyword_query]","single_word":false,"lstrip":false,"rstrip":false,"normalized":false},{"id":30661,"special":true,"content":"[const_element]","single_word":false,"lstrip":false,"rstrip":false,"normalized":false},{"id":30662,"special":true,"content":"[item_attribute]","single_word":false,"lstrip":false,"rstrip":false,"normalized":false},{"id":30663,"special":true,"content":"[ambient_declaration]","single_word":false,"lstrip":false,"rstrip":false,"normalized":false},{"id":30664,"special":true,"content":"[cast_type]","single_word":false,"lstrip":false,"rstrip":false,"normalized":false},{"id":30665,"special":true,"content":"[template_method]","single_word":false,"lstrip":false,"rstrip":false,"normalized":false},{"id":30666,"special":true,"content":"[using_declaration]","single_word":false,"lstrip":false,"rstrip":false,"normalized":false},{"id":30667,"special":true,"content":"[jsx_element]","single_word":false,"lstrip":false,"rstrip":false,"normalized":false},{"id":30668,"special":true,"content":"[jsx_closing_element]","single_word":false,"lstrip":false,"rstrip":false,"normalized":false},{"id":30669,"special":true,"content":"[jsx_opening_element]","single_word":false,"lstrip":false,"rstrip":false,"normalized":false},{"id":30670,"special":true,"content":"[polymorphic_variant_type]","single_word":false,"lstrip":false,"rstrip":false,"normalized":false},{"id":30671,"special":true,"content":"[typed_default_parameter]","single_word":false,"lstrip":false,"rstrip":false,"normalized":false},{"id":30672,"special":true,"content":"[type_alias_declaration]","single_word":false,"lstrip":false,"rstrip":false,"normalized":false},{"id":30673,"special":true,"content":"[optional_parameter_declaration]","single_word":false,"lstrip":false,"rstrip":false,"normalized":false},{"id":30674,"special":true,"content":"[for_in_statement]","single_word":false,"lstrip":false,"rstrip":false,"normalized":false},{"id":30675,"special":true,"content":"[ref_pattern]","single_word":false,"lstrip":false,"rstrip":false,"normalized":false},{"id":30676,"special":true,"content":"[struct_pattern]","single_word":false,"lstrip":false,"rstrip":false,"normalized":false},{"id":30677,"special":true,"content":"[token_binding_pattern]","single_word":false,"lstrip":false,"rstrip":false,"normalized":false},{"id":30678,"special":true,"content":"[fragment_specifier]","single_word":false,"lstrip":false,"rstrip":false,"normalized":false},{"id":30679,"special":true,"content":"[extension]","single_word":false,"lstrip":false,"rstrip":false,"normalized":false},{"id":30680,"special":true,"content":"[ascription_expression]","single_word":false,"lstrip":false,"rstrip":false,"normalized":false},{"id":30681,"special":true,"content":"[preproc_message]","single_word":false,"lstrip":false,"rstrip":false,"normalized":false},{"id":30682,"special":true,"content":"[type_alias]","single_word":false,"lstrip":false,"rstrip":false,"normalized":false},{"id":30683,"special":true,"content":"[enumerator_list]","single_word":false,"lstrip":false,"rstrip":false,"normalized":false},{"id":30684,"special":true,"content":"[alias_pattern]","single_word":false,"lstrip":false,"rstrip":false,"normalized":false},{"id":30685,"special":true,"content":"[type_conversion_expression]","single_word":false,"lstrip":false,"rstrip":false,"normalized":false},{"id":30686,"special":true,"content":"[lambda]","single_word":false,"lstrip":false,"rstrip":false,"normalized":false},{"id":30687,"special":true,"content":"[regex_flags]","single_word":false,"lstrip":false,"rstrip":false,"normalized":false},{"id":30688,"special":true,"content":"[operator_name]","single_word":false,"lstrip":false,"rstrip":false,"normalized":false},{"id":30689,"special":true,"content":"[enum_item]","single_word":false,"lstrip":false,"rstrip":false,"normalized":false},{"id":30690,"special":true,"content":"[enum_variant_list]","single_word":false,"lstrip":false,"rstrip":false,"normalized":false},{"id":30691,"special":true,"content":"[do_clause]","single_word":false,"lstrip":false,"rstrip":false,"normalized":false},{"id":30692,"special":true,"content":"[for_each_statement]","single_word":false,"lstrip":false,"rstrip":false,"normalized":false},{"id":30693,"special":true,"content":"[exp_cond]","single_word":false,"lstrip":false,"rstrip":false,"normalized":false},{"id":30694,"special":true,"content":"[parameter_modifier]","single_word":false,"lstrip":false,"rstrip":false,"normalized":false},{"id":30695,"special":true,"content":"[heredoc_content]","single_word":false,"lstrip":false,"rstrip":false,"normalized":false},{"id":30696,"special":true,"content":"[cpp]","single_word":false,"lstrip":false,"rstrip":false,"normalized":false},{"id":30697,"special":true,"content":"[at_keyword]","single_word":false,"lstrip":false,"rstrip":false,"normalized":false},{"id":30698,"special":true,"content":"[enhanced_for_statement]","single_word":false,"lstrip":false,"rstrip":false,"normalized":false},{"id":30699,"special":true,"content":"[aliased_import]","single_word":false,"lstrip":false,"rstrip":false,"normalized":false},{"id":30700,"special":true,"content":"[dictionary_splat]","single_word":false,"lstrip":false,"rstrip":false,"normalized":false},{"id":30701,"special":true,"content":"[adjacent_sibling_selector]","single_word":false,"lstrip":false,"rstrip":false,"normalized":false},{"id":30702,"special":true,"content":"[postfix_unary_expression]","single_word":false,"lstrip":false,"rstrip":false,"normalized":false},{"id":30703,"special":true,"content":"[sign_expression]","single_word":false,"lstrip":false,"rstrip":false,"normalized":false},{"id":30704,"special":true,"content":"[sign_operator]","single_word":false,"lstrip":false,"rstrip":false,"normalized":false},{"id":30705,"special":true,"content":"[pattern]","single_word":false,"lstrip":false,"rstrip":false,"normalized":false},{"id":30706,"special":true,"content":"[var_definition]","single_word":false,"lstrip":false,"rstrip":false,"normalized":false},{"id":30707,"special":true,"content":"[matrix_expression]","single_word":false,"lstrip":false,"rstrip":false,"normalized":false},{"id":30708,"special":true,"content":"[relative_import]","single_word":false,"lstrip":false,"rstrip":false,"normalized":false},{"id":30709,"special":true,"content":"[import_prefix]","single_word":false,"lstrip":false,"rstrip":false,"normalized":false},{"id":30710,"special":true,"content":"[virtual_specifier]","single_word":false,"lstrip":false,"rstrip":false,"normalized":false},{"id":30711,"special":true,"content":"[data_constructor_record]","single_word":false,"lstrip":false,"rstrip":false,"normalized":false},{"id":30712,"special":true,"content":"[compound_assignment_expr]","single_word":false,"lstrip":false,"rstrip":false,"normalized":false},{"id":30713,"special":true,"content":"[export_specifier]","single_word":false,"lstrip":false,"rstrip":false,"normalized":false},{"id":30714,"special":true,"content":"[expression_switch_statement]","single_word":false,"lstrip":false,"rstrip":false,"normalized":false},{"id":30715,"special":true,"content":"[record_fields]","single_word":false,"lstrip":false,"rstrip":false,"normalized":false},{"id":30716,"special":true,"content":"[static_modifier]","single_word":false,"lstrip":false,"rstrip":false,"normalized":false},{"id":30717,"special":true,"content":"[else]","single_word":false,"lstrip":false,"rstrip":false,"normalized":false},{"id":30718,"special":true,"content":"[shorthand_field_identifier]","single_word":false,"lstrip":false,"rstrip":false,"normalized":false},{"id":30719,"special":true,"content":"[parenthesized_module_expression]","single_word":false,"lstrip":false,"rstrip":false,"normalized":false},{"id":30720,"special":true,"content":"[quoted_string_content]","single_word":false,"lstrip":false,"rstrip":false,"normalized":false},{"id":30721,"special":true,"content":"[promoted]","single_word":false,"lstrip":false,"rstrip":false,"normalized":false},{"id":30722,"special":true,"content":"[quoted_string]","single_word":false,"lstrip":false,"rstrip":false,"normalized":false},{"id":30723,"special":true,"content":"[variadic_parameter_declaration]","single_word":false,"lstrip":false,"rstrip":false,"normalized":false},{"id":30724,"special":true,"content":"[broadcast_call_expression]","single_word":false,"lstrip":false,"rstrip":false,"normalized":false},{"id":30725,"special":true,"content":"[module_application]","single_word":false,"lstrip":false,"rstrip":false,"normalized":false},{"id":30726,"special":true,"content":"[spread_element]","single_word":false,"lstrip":false,"rstrip":false,"normalized":false},{"id":30727,"special":true,"content":"[unless_modifier]","single_word":false,"lstrip":false,"rstrip":false,"normalized":false},{"id":30728,"special":true,"content":"[unary]","single_word":false,"lstrip":false,"rstrip":false,"normalized":false},{"id":30729,"special":true,"content":"[function_signature_item]","single_word":false,"lstrip":false,"rstrip":false,"normalized":false},{"id":30730,"special":true,"content":"[parenthesized_statements]","single_word":false,"lstrip":false,"rstrip":false,"normalized":false},{"id":30731,"special":true,"content":"[pass_statement]","single_word":false,"lstrip":false,"rstrip":false,"normalized":false},{"id":30732,"special":true,"content":"[exports]","single_word":false,"lstrip":false,"rstrip":false,"normalized":false},{"id":30733,"special":true,"content":"[import_con_names]","single_word":false,"lstrip":false,"rstrip":false,"normalized":false},{"id":30734,"special":true,"content":"[return]","single_word":false,"lstrip":false,"rstrip":false,"normalized":false},{"id":30735,"special":true,"content":"[unsafe_block]","single_word":false,"lstrip":false,"rstrip":false,"normalized":false},{"id":30736,"special":true,"content":"[base_class_clause]","single_word":false,"lstrip":false,"rstrip":false,"normalized":false},{"id":30737,"special":true,"content":"[preproc_else]","single_word":false,"lstrip":false,"rstrip":false,"normalized":false},{"id":30738,"special":true,"content":"[parenthesized_declarator]","single_word":false,"lstrip":false,"rstrip":false,"normalized":false},{"id":30739,"special":true,"content":"[base_clause]","single_word":false,"lstrip":false,"rstrip":false,"normalized":false},{"id":30740,"special":true,"content":"[record_declaration]","single_word":false,"lstrip":false,"rstrip":false,"normalized":false},{"id":30741,"special":true,"content":"[array_get_expression]","single_word":false,"lstrip":false,"rstrip":false,"normalized":false},{"id":30742,"special":true,"content":"[list_comprehension]","single_word":false,"lstrip":false,"rstrip":false,"normalized":false},{"id":30743,"special":true,"content":"[variadic_argument]","single_word":false,"lstrip":false,"rstrip":false,"normalized":false},{"id":30744,"special":true,"content":"[module_type_path]","single_word":false,"lstrip":false,"rstrip":false,"normalized":false},{"id":30745,"special":true,"content":"[labeled_statement]","single_word":false,"lstrip":false,"rstrip":false,"normalized":false},{"id":30746,"special":true,"content":"[throw_expression]","single_word":false,"lstrip":false,"rstrip":false,"normalized":false},{"id":30747,"special":true,"content":"[where_clause]","single_word":false,"lstrip":false,"rstrip":false,"normalized":false},{"id":30748,"special":true,"content":"[name_colon]","single_word":false,"lstrip":false,"rstrip":false,"normalized":false},{"id":30749,"special":true,"content":"[use_wildcard]","single_word":false,"lstrip":false,"rstrip":false,"normalized":false},{"id":30750,"special":true,"content":"[nullable_type]","single_word":false,"lstrip":false,"rstrip":false,"normalized":false},{"id":30751,"special":true,"content":"[defer_statement]","single_word":false,"lstrip":false,"rstrip":false,"normalized":false},{"id":30752,"special":true,"content":"[tag_pattern]","single_word":false,"lstrip":false,"rstrip":false,"normalized":false},{"id":30753,"special":true,"content":"[type_of_expression]","single_word":false,"lstrip":false,"rstrip":false,"normalized":false},{"id":30754,"special":true,"content":"[object_pattern]","single_word":false,"lstrip":false,"rstrip":false,"normalized":false},{"id":30755,"special":true,"content":"[virtual_function_specifier]","single_word":false,"lstrip":false,"rstrip":false,"normalized":false},{"id":30756,"special":true,"content":"[pat_infix]","single_word":false,"lstrip":false,"rstrip":false,"normalized":false},{"id":30757,"special":true,"content":"[delimited_symbol]","single_word":false,"lstrip":false,"rstrip":false,"normalized":false},{"id":30758,"special":true,"content":"[jsx_expression]","single_word":false,"lstrip":false,"rstrip":false,"normalized":false},{"id":30759,"special":true,"content":"[strict_type]","single_word":false,"lstrip":false,"rstrip":false,"normalized":false},{"id":30760,"special":true,"content":"[hex_integer_literal]","single_word":false,"lstrip":false,"rstrip":false,"normalized":false},{"id":30761,"special":true,"content":"[unit_expression]","single_word":false,"lstrip":false,"rstrip":false,"normalized":false},{"id":30762,"special":true,"content":"[abstract_function_declarator]","single_word":false,"lstrip":false,"rstrip":false,"normalized":false},{"id":30763,"special":true,"content":"[nested_identifier]","single_word":false,"lstrip":false,"rstrip":false,"normalized":false},{"id":30764,"special":true,"content":"[char]","single_word":false,"lstrip":false,"rstrip":false,"normalized":false},{"id":30765,"special":true,"content":"[interpolated_string_text]","single_word":false,"lstrip":false,"rstrip":false,"normalized":false},{"id":30766,"special":true,"content":"[tag_specification]","single_word":false,"lstrip":false,"rstrip":false,"normalized":false},{"id":30767,"special":true,"content":"[variant_declaration]","single_word":false,"lstrip":false,"rstrip":false,"normalized":false},{"id":30768,"special":true,"content":"[set_expression]","single_word":false,"lstrip":false,"rstrip":false,"normalized":false},{"id":30769,"special":true,"content":"[real_literal]","single_word":false,"lstrip":false,"rstrip":false,"normalized":false},{"id":30770,"special":true,"content":"[local_open_expression]","single_word":false,"lstrip":false,"rstrip":false,"normalized":false},{"id":30771,"special":true,"content":"[abstract_reference_declarator]","single_word":false,"lstrip":false,"rstrip":false,"normalized":false},{"id":30772,"special":true,"content":"[postfix_expression]","single_word":false,"lstrip":false,"rstrip":false,"normalized":false},{"id":30773,"special":true,"content":"[keyframe_block]","single_word":false,"lstrip":false,"rstrip":false,"normalized":false},{"id":30774,"special":true,"content":"[assert_expression]","single_word":false,"lstrip":false,"rstrip":false,"normalized":false},{"id":30775,"special":true,"content":"[as_expression]","single_word":false,"lstrip":false,"rstrip":false,"normalized":false},{"id":30776,"special":true,"content":"[switch_section]","single_word":false,"lstrip":false,"rstrip":false,"normalized":false},{"id":30777,"special":true,"content":"[function_modifiers]","single_word":false,"lstrip":false,"rstrip":false,"normalized":false},{"id":30778,"special":true,"content":"[inc_statement]","single_word":false,"lstrip":false,"rstrip":false,"normalized":false},{"id":30779,"special":true,"content":"[with_clause]","single_word":false,"lstrip":false,"rstrip":false,"normalized":false},{"id":30780,"special":true,"content":"[switch_block_statement_group]","single_word":false,"lstrip":false,"rstrip":false,"normalized":false},{"id":30781,"special":true,"content":"[nullptr]","single_word":false,"lstrip":false,"rstrip":false,"normalized":false},{"id":30782,"special":true,"content":"[with_statement]","single_word":false,"lstrip":false,"rstrip":false,"normalized":false},{"id":30783,"special":true,"content":"[doctype]","single_word":false,"lstrip":false,"rstrip":false,"normalized":false},{"id":30784,"special":true,"content":"[switch_label]","single_word":false,"lstrip":false,"rstrip":false,"normalized":false},{"id":30785,"special":true,"content":"[case_class_pattern]","single_word":false,"lstrip":false,"rstrip":false,"normalized":false},{"id":30786,"special":true,"content":"[array_initializer]","single_word":false,"lstrip":false,"rstrip":false,"normalized":false},{"id":30787,"special":true,"content":"[catch_formal_parameter]","single_word":false,"lstrip":false,"rstrip":false,"normalized":false},{"id":30788,"special":true,"content":"[catch_type]","single_word":false,"lstrip":false,"rstrip":false,"normalized":false},{"id":30789,"special":true,"content":"[with_item]","single_word":false,"lstrip":false,"rstrip":false,"normalized":false},{"id":30790,"special":true,"content":"[case_switch_label]","single_word":false,"lstrip":false,"rstrip":false,"normalized":false},{"id":30791,"special":true,"content":"[coefficient_expression]","single_word":false,"lstrip":false,"rstrip":false,"normalized":false},{"id":30792,"special":true,"content":"[foreach_statement]","single_word":false,"lstrip":false,"rstrip":false,"normalized":false},{"id":30793,"special":true,"content":"[parenthesized_type]","single_word":false,"lstrip":false,"rstrip":false,"normalized":false},{"id":30794,"special":true,"content":"[deriving]","single_word":false,"lstrip":false,"rstrip":false,"normalized":false},{"id":30795,"special":true,"content":"[concatenated_string]","single_word":false,"lstrip":false,"rstrip":false,"normalized":false},{"id":30796,"special":true,"content":"[constrained_type_parameter]","single_word":false,"lstrip":false,"rstrip":false,"normalized":false},{"id":30797,"special":true,"content":"[typed_label]","single_word":false,"lstrip":false,"rstrip":false,"normalized":false},{"id":30798,"special":true,"content":"[unit_type]","single_word":false,"lstrip":false,"rstrip":false,"normalized":false},{"id":30799,"special":true,"content":"[class_specifier]","single_word":false,"lstrip":false,"rstrip":false,"normalized":false},{"id":30800,"special":true,"content":"[module_type_name]","single_word":false,"lstrip":false,"rstrip":false,"normalized":false},{"id":30801,"special":true,"content":"[import_spec_list]","single_word":false,"lstrip":false,"rstrip":false,"normalized":false},{"id":30802,"special":true,"content":"[object_definition]","single_word":false,"lstrip":false,"rstrip":false,"normalized":false},{"id":30803,"special":true,"content":"[arrow_expression_clause]","single_word":false,"lstrip":false,"rstrip":false,"normalized":false},{"id":30804,"special":true,"content":"[constructor_body]","single_word":false,"lstrip":false,"rstrip":false,"normalized":false},{"id":30805,"special":true,"content":"[import_selectors]","single_word":false,"lstrip":false,"rstrip":false,"normalized":false},{"id":30806,"special":true,"content":"[class_parameters]","single_word":false,"lstrip":false,"rstrip":false,"normalized":false},{"id":30807,"special":true,"content":"[type_infix]","single_word":false,"lstrip":false,"rstrip":false,"normalized":false},{"id":30808,"special":true,"content":"[except_clause]","single_word":false,"lstrip":false,"rstrip":false,"normalized":false},{"id":30809,"special":true,"content":"[media_statement]","single_word":false,"lstrip":false,"rstrip":false,"normalized":false},{"id":30810,"special":true,"content":"[floating_point_type]","single_word":false,"lstrip":false,"rstrip":false,"normalized":false},{"id":30811,"special":true,"content":"[property_initializer]","single_word":false,"lstrip":false,"rstrip":false,"normalized":false},{"id":30812,"special":true,"content":"[alias_qualified_name]","single_word":false,"lstrip":false,"rstrip":false,"normalized":false},{"id":30813,"special":true,"content":"[constructors]","single_word":false,"lstrip":false,"rstrip":false,"normalized":false},{"id":30814,"special":true,"content":"[external]","single_word":false,"lstrip":false,"rstrip":false,"normalized":false},{"id":30815,"special":true,"content":"[element_value_pair]","single_word":false,"lstrip":false,"rstrip":false,"normalized":false},{"id":30816,"special":true,"content":"[case_block]","single_word":false,"lstrip":false,"rstrip":false,"normalized":false},{"id":30817,"special":true,"content":"[for_in_clause]","single_word":false,"lstrip":false,"rstrip":false,"normalized":false},{"id":30818,"special":true,"content":"[base_list]","single_word":false,"lstrip":false,"rstrip":false,"normalized":false},{"id":30819,"special":true,"content":"[comma_expression]","single_word":false,"lstrip":false,"rstrip":false,"normalized":false},{"id":30820,"special":true,"content":"[pat_as]","single_word":false,"lstrip":false,"rstrip":false,"normalized":false},{"id":30821,"special":true,"content":"[enum_specifier]","single_word":false,"lstrip":false,"rstrip":false,"normalized":false},{"id":30822,"special":true,"content":"[const_statement]","single_word":false,"lstrip":false,"rstrip":false,"normalized":false},{"id":30823,"special":true,"content":"[bitfield_clause]","single_word":false,"lstrip":false,"rstrip":false,"normalized":false},{"id":30824,"special":true,"content":"[echo_statement]","single_word":false,"lstrip":false,"rstrip":false,"normalized":false},{"id":30825,"special":true,"content":"[type_tuple]","single_word":false,"lstrip":false,"rstrip":false,"normalized":false},{"id":30826,"special":true,"content":"[feature_query]","single_word":false,"lstrip":false,"rstrip":false,"normalized":false},{"id":30827,"special":true,"content":"[feature_name]","single_word":false,"lstrip":false,"rstrip":false,"normalized":false},{"id":30828,"special":true,"content":"[guard_equation]","single_word":false,"lstrip":false,"rstrip":false,"normalized":false},{"id":30829,"special":true,"content":"[jsx_text]","single_word":false,"lstrip":false,"rstrip":false,"normalized":false},{"id":30830,"special":true,"content":"[elif_clause]","single_word":false,"lstrip":false,"rstrip":false,"normalized":false},{"id":30831,"special":true,"content":"[where_predicate]","single_word":false,"lstrip":false,"rstrip":false,"normalized":false},{"id":30832,"special":true,"content":"[access_modifier]","single_word":false,"lstrip":false,"rstrip":false,"normalized":false},{"id":30833,"special":true,"content":"[for_clause]","single_word":false,"lstrip":false,"rstrip":false,"normalized":false},{"id":30834,"special":true,"content":"[jsx_attribute]","single_word":false,"lstrip":false,"rstrip":false,"normalized":false},{"id":30835,"special":true,"content":"[structure]","single_word":false,"lstrip":false,"rstrip":false,"normalized":false},{"id":30836,"special":true,"content":"[method_spec]","single_word":false,"lstrip":false,"rstrip":false,"normalized":false},{"id":30837,"special":true,"content":"[adt]","single_word":false,"lstrip":false,"rstrip":false,"normalized":false},{"id":30838,"special":true,"content":"[ordered_field_declaration_list]","single_word":false,"lstrip":false,"rstrip":false,"normalized":false},{"id":30839,"special":true,"content":"[export_names]","single_word":false,"lstrip":false,"rstrip":false,"normalized":false},{"id":30840,"special":true,"content":"[triple_string]","single_word":false,"lstrip":false,"rstrip":false,"normalized":false},{"id":30841,"special":true,"content":"[character_content]","single_word":false,"lstrip":false,"rstrip":false,"normalized":false},{"id":30842,"special":true,"content":"[if_let_expression]","single_word":false,"lstrip":false,"rstrip":false,"normalized":false},{"id":30843,"special":true,"content":"[access_specifier]","single_word":false,"lstrip":false,"rstrip":false,"normalized":false},{"id":30844,"special":true,"content":"[stable_type_identifier]","single_word":false,"lstrip":false,"rstrip":false,"normalized":false},{"id":30845,"special":true,"content":"[augmented_assignment]","single_word":false,"lstrip":false,"rstrip":false,"normalized":false},{"id":30846,"special":true,"content":"[attribute_payload]","single_word":false,"lstrip":false,"rstrip":false,"normalized":false},{"id":30847,"special":true,"content":"[let]","single_word":false,"lstrip":false,"rstrip":false,"normalized":false},{"id":30848,"special":true,"content":"[switch_case]","single_word":false,"lstrip":false,"rstrip":false,"normalized":false},{"id":30849,"special":true,"content":"[character_literal]","single_word":false,"lstrip":false,"rstrip":false,"normalized":false},{"id":30850,"special":true,"content":"[mod_item]","single_word":false,"lstrip":false,"rstrip":false,"normalized":false},{"id":30851,"special":true,"content":"[package_declaration]","single_word":false,"lstrip":false,"rstrip":false,"normalized":false},{"id":30852,"special":true,"content":"[if_modifier]","single_word":false,"lstrip":false,"rstrip":false,"normalized":false},{"id":30853,"special":true,"content":"[shorthand_property_identifier]","single_word":false,"lstrip":false,"rstrip":false,"normalized":false},{"id":30854,"special":true,"content":"[type_assertion_expression]","single_word":false,"lstrip":false,"rstrip":false,"normalized":false},{"id":30855,"special":true,"content":"[name_equals]","single_word":false,"lstrip":false,"rstrip":false,"normalized":false},{"id":30856,"special":true,"content":"[namespace_declaration]","single_word":false,"lstrip":false,"rstrip":false,"normalized":false},{"id":30857,"special":true,"content":"[bare_tuple_expression]","single_word":false,"lstrip":false,"rstrip":false,"normalized":false},{"id":30858,"special":true,"content":"[cons_pattern]","single_word":false,"lstrip":false,"rstrip":false,"normalized":false},{"id":30859,"special":true,"content":"[switch_statement]","single_word":false,"lstrip":false,"rstrip":false,"normalized":false},{"id":30860,"special":true,"content":"[bare_string]","single_word":false,"lstrip":false,"rstrip":false,"normalized":false},{"id":30861,"special":true,"content":"[preproc_if]","single_word":false,"lstrip":false,"rstrip":false,"normalized":false},{"id":30862,"special":true,"content":"[con_list]","single_word":false,"lstrip":false,"rstrip":false,"normalized":false},{"id":30863,"special":true,"content":"[func_literal]","single_word":false,"lstrip":false,"rstrip":false,"normalized":false},{"id":30864,"special":true,"content":"[shorthand_field_initializer]","single_word":false,"lstrip":false,"rstrip":false,"normalized":false},{"id":30865,"special":true,"content":"[interpolated_string]","single_word":false,"lstrip":false,"rstrip":false,"normalized":false},{"id":30866,"special":true,"content":"[expression_item]","single_word":false,"lstrip":false,"rstrip":false,"normalized":false},{"id":30867,"special":true,"content":"[enum_member_declaration]","single_word":false,"lstrip":false,"rstrip":false,"normalized":false},{"id":30868,"special":true,"content":"[exp_case]","single_word":false,"lstrip":false,"rstrip":false,"normalized":false},{"id":30869,"special":true,"content":"[named_type]","single_word":false,"lstrip":false,"rstrip":false,"normalized":false},{"id":30870,"special":true,"content":"[slice]","single_word":false,"lstrip":false,"rstrip":false,"normalized":false},{"id":30871,"special":true,"content":"[raise_statement]","single_word":false,"lstrip":false,"rstrip":false,"normalized":false},{"id":30872,"special":true,"content":"[preproc_call]","single_word":false,"lstrip":false,"rstrip":false,"normalized":false},{"id":30873,"special":true,"content":"[preproc_directive]","single_word":false,"lstrip":false,"rstrip":false,"normalized":false},{"id":30874,"special":true,"content":"[document]","single_word":false,"lstrip":false,"rstrip":false,"normalized":false},{"id":30875,"special":true,"content":"[haskell]","single_word":false,"lstrip":false,"rstrip":false,"normalized":false},{"id":30876,"special":true,"content":"[fragment]","single_word":false,"lstrip":false,"rstrip":false,"normalized":false},{"id":30877,"special":true,"content":"[stylesheet]","single_word":false,"lstrip":false,"rstrip":false,"normalized":false},{"id":30878,"special":true,"content":"[decimal_floating_point_literal]","single_word":false,"lstrip":false,"rstrip":false,"normalized":false},{"id":30879,"special":true,"content":"[preproc_defined]","single_word":false,"lstrip":false,"rstrip":false,"normalized":false},{"id":30880,"special":true,"content":"[return_expression]","single_word":false,"lstrip":false,"rstrip":false,"normalized":false},{"id":30881,"special":true,"content":"[guards]","single_word":false,"lstrip":false,"rstrip":false,"normalized":false},{"id":30882,"special":true,"content":"[if]","single_word":false,"lstrip":false,"rstrip":false,"normalized":false},{"id":30883,"special":true,"content":"[pat_literal]","single_word":false,"lstrip":false,"rstrip":false,"normalized":false},{"id":30884,"special":true,"content":"[annotation_argument_list]","single_word":false,"lstrip":false,"rstrip":false,"normalized":false},{"id":30885,"special":true,"content":"[class]","single_word":false,"lstrip":false,"rstrip":false,"normalized":false},{"id":30886,"special":true,"content":"[shorthand_property_identifier_pattern]","single_word":false,"lstrip":false,"rstrip":false,"normalized":false},{"id":30887,"special":true,"content":"[const_declaration]","single_word":false,"lstrip":false,"rstrip":false,"normalized":false},{"id":30888,"special":true,"content":"[text_interpolation]","single_word":false,"lstrip":false,"rstrip":false,"normalized":false},{"id":30889,"special":true,"content":"[superclass]","single_word":false,"lstrip":false,"rstrip":false,"normalized":false},{"id":30890,"special":true,"content":"[all_names]","single_word":false,"lstrip":false,"rstrip":false,"normalized":false},{"id":30891,"special":true,"content":"[interface_declaration]","single_word":false,"lstrip":false,"rstrip":false,"normalized":false},{"id":30892,"special":true,"content":"[pat_field]","single_word":false,"lstrip":false,"rstrip":false,"normalized":false},{"id":30893,"special":true,"content":"[array_rank_specifier]","single_word":false,"lstrip":false,"rstrip":false,"normalized":false},{"id":30894,"special":true,"content":"[dependent_type]","single_word":false,"lstrip":false,"rstrip":false,"normalized":false},{"id":30895,"special":true,"content":"[type_parameter]","single_word":false,"lstrip":false,"rstrip":false,"normalized":false},{"id":30896,"special":true,"content":"[pseudo_element_selector]","single_word":false,"lstrip":false,"rstrip":false,"normalized":false},{"id":30897,"special":true,"content":"[relative_scope]","single_word":false,"lstrip":false,"rstrip":false,"normalized":false},{"id":30898,"special":true,"content":"[compound_expression]","single_word":false,"lstrip":false,"rstrip":false,"normalized":false},{"id":30899,"special":true,"content":"[undefined]","single_word":false,"lstrip":false,"rstrip":false,"normalized":false},{"id":30900,"special":true,"content":"[matrix_row]","single_word":false,"lstrip":false,"rstrip":false,"normalized":false},{"id":30901,"special":true,"content":"[metavariable]","single_word":false,"lstrip":false,"rstrip":false,"normalized":false},{"id":30902,"special":true,"content":"[character]","single_word":false,"lstrip":false,"rstrip":false,"normalized":false},{"id":30903,"special":true,"content":"[goto_statement]","single_word":false,"lstrip":false,"rstrip":false,"normalized":false},{"id":30904,"special":true,"content":"[alts]","single_word":false,"lstrip":false,"rstrip":false,"normalized":false},{"id":30905,"special":true,"content":"[prefix_unary_expression]","single_word":false,"lstrip":false,"rstrip":false,"normalized":false},{"id":30906,"special":true,"content":"[record_pattern]","single_word":false,"lstrip":false,"rstrip":false,"normalized":false},{"id":30907,"special":true,"content":"[list_pattern]","single_word":false,"lstrip":false,"rstrip":false,"normalized":false},{"id":30908,"special":true,"content":"[cons_expression]","single_word":false,"lstrip":false,"rstrip":false,"normalized":false},{"id":30909,"special":true,"content":"[map_type]","single_word":false,"lstrip":false,"rstrip":false,"normalized":false},{"id":30910,"special":true,"content":"[data_constructor]","single_word":false,"lstrip":false,"rstrip":false,"normalized":false},{"id":30911,"special":true,"content":"[slice_expression]","single_word":false,"lstrip":false,"rstrip":false,"normalized":false},{"id":30912,"special":true,"content":"[type_item]","single_word":false,"lstrip":false,"rstrip":false,"normalized":false},{"id":30913,"special":true,"content":"[rune_literal]","single_word":false,"lstrip":false,"rstrip":false,"normalized":false},{"id":30914,"special":true,"content":"[for_expression]","single_word":false,"lstrip":false,"rstrip":false,"normalized":false},{"id":30915,"special":true,"content":"[regex_pattern]","single_word":false,"lstrip":false,"rstrip":false,"normalized":false},{"id":30916,"special":true,"content":"[throws]","single_word":false,"lstrip":false,"rstrip":false,"normalized":false},{"id":30917,"special":true,"content":"[pattern_list]","single_word":false,"lstrip":false,"rstrip":false,"normalized":false},{"id":30918,"special":true,"content":"[range_clause]","single_word":false,"lstrip":false,"rstrip":false,"normalized":false},{"id":30919,"special":true,"content":"[nested_type_identifier]","single_word":false,"lstrip":false,"rstrip":false,"normalized":false},{"id":30920,"special":true,"content":"[not_operator]","single_word":false,"lstrip":false,"rstrip":false,"normalized":false},{"id":30921,"special":true,"content":"[pat_tuple]","single_word":false,"lstrip":false,"rstrip":false,"normalized":false},{"id":30922,"special":true,"content":"[auto]","single_word":false,"lstrip":false,"rstrip":false,"normalized":false},{"id":30923,"special":true,"content":"[template_string]","single_word":false,"lstrip":false,"rstrip":false,"normalized":false},{"id":30924,"special":true,"content":"[floating_point_literal]","single_word":false,"lstrip":false,"rstrip":false,"normalized":false},{"id":30925,"special":true,"content":"[interpolated_string_expression]","single_word":false,"lstrip":false,"rstrip":false,"normalized":false},{"id":30926,"special":true,"content":"[array_access]","single_word":false,"lstrip":false,"rstrip":false,"normalized":false},{"id":30927,"special":true,"content":"[boolean_type]","single_word":false,"lstrip":false,"rstrip":false,"normalized":false},{"id":30928,"special":true,"content":"[decorated_definition]","single_word":false,"lstrip":false,"rstrip":false,"normalized":false},{"id":30929,"special":true,"content":"[template_declaration]","single_word":false,"lstrip":false,"rstrip":false,"normalized":false},{"id":30930,"special":true,"content":"[qualified_operator]","single_word":false,"lstrip":false,"rstrip":false,"normalized":false},{"id":30931,"special":true,"content":"[const_item]","single_word":false,"lstrip":false,"rstrip":false,"normalized":false},{"id":30932,"special":true,"content":"[con_unit]","single_word":false,"lstrip":false,"rstrip":false,"normalized":false},{"id":30933,"special":true,"content":"[template_parameter_list]","single_word":false,"lstrip":false,"rstrip":false,"normalized":false},{"id":30934,"special":true,"content":"[template_substitution]","single_word":false,"lstrip":false,"rstrip":false,"normalized":false},{"id":30935,"special":true,"content":"[initializer_expression]","single_word":false,"lstrip":false,"rstrip":false,"normalized":false},{"id":30936,"special":true,"content":"[class_constant_access_expression]","single_word":false,"lstrip":false,"rstrip":false,"normalized":false},{"id":30937,"special":true,"content":"[public_field_definition]","single_word":false,"lstrip":false,"rstrip":false,"normalized":false},{"id":30938,"special":true,"content":"[block_parameters]","single_word":false,"lstrip":false,"rstrip":false,"normalized":false},{"id":30939,"special":true,"content":"[continue_statement]","single_word":false,"lstrip":false,"rstrip":false,"normalized":false},{"id":30940,"special":true,"content":"[while_statement]","single_word":false,"lstrip":false,"rstrip":false,"normalized":false},{"id":30941,"special":true,"content":"[object_type]","single_word":false,"lstrip":false,"rstrip":false,"normalized":false},{"id":30942,"special":true,"content":"[unary_operator]","single_word":false,"lstrip":false,"rstrip":false,"normalized":false},{"id":30943,"special":true,"content":"[accessibility_modifier]","single_word":false,"lstrip":false,"rstrip":false,"normalized":false},{"id":30944,"special":true,"content":"[match_block]","single_word":false,"lstrip":false,"rstrip":false,"normalized":false},{"id":30945,"special":true,"content":"[pretty_printing_indication]","single_word":false,"lstrip":false,"rstrip":false,"normalized":false},{"id":30946,"special":true,"content":"[dimensions]","single_word":false,"lstrip":false,"rstrip":false,"normalized":false},{"id":30947,"special":true,"content":"[super]","single_word":false,"lstrip":false,"rstrip":false,"normalized":false},{"id":30948,"special":true,"content":"[attribute_id]","single_word":false,"lstrip":false,"rstrip":false,"normalized":false},{"id":30949,"special":true,"content":"[for_binding]","single_word":false,"lstrip":false,"rstrip":false,"normalized":false},{"id":30950,"special":true,"content":"[namespace_use_clause]","single_word":false,"lstrip":false,"rstrip":false,"normalized":false},{"id":30951,"special":true,"content":"[namespace_use_declaration]","single_word":false,"lstrip":false,"rstrip":false,"normalized":false},{"id":30952,"special":true,"content":"[namespace_definition]","single_word":false,"lstrip":false,"rstrip":false,"normalized":false},{"id":30953,"special":true,"content":"[interface_type]","single_word":false,"lstrip":false,"rstrip":false,"normalized":false},{"id":30954,"special":true,"content":"[method_spec_list]","single_word":false,"lstrip":false,"rstrip":false,"normalized":false},{"id":30955,"special":true,"content":"[catch_clause]","single_word":false,"lstrip":false,"rstrip":false,"normalized":false},{"id":30956,"special":true,"content":"[extends_clause]","single_word":false,"lstrip":false,"rstrip":false,"normalized":false},{"id":30957,"special":true,"content":"[struct_item]","single_word":false,"lstrip":false,"rstrip":false,"normalized":false},{"id":30958,"special":true,"content":"[boolean_operator]","single_word":false,"lstrip":false,"rstrip":false,"normalized":false},{"id":30959,"special":true,"content":"[function_expression]","single_word":false,"lstrip":false,"rstrip":false,"normalized":false},{"id":30960,"special":true,"content":"[qualified_constructor]","single_word":false,"lstrip":false,"rstrip":false,"normalized":false},{"id":30961,"special":true,"content":"[scoped_use_list]","single_word":false,"lstrip":false,"rstrip":false,"normalized":false},{"id":30962,"special":true,"content":"[use_list]","single_word":false,"lstrip":false,"rstrip":false,"normalized":false},{"id":30963,"special":true,"content":"[method_signature]","single_word":false,"lstrip":false,"rstrip":false,"normalized":false},{"id":30964,"special":true,"content":"[statement_identifier]","single_word":false,"lstrip":false,"rstrip":false,"normalized":false},{"id":30965,"special":true,"content":"[sizeof_expression]","single_word":false,"lstrip":false,"rstrip":false,"normalized":false},{"id":30966,"special":true,"content":"[open_module]","single_word":false,"lstrip":false,"rstrip":false,"normalized":false},{"id":30967,"special":true,"content":"[method_parameters]","single_word":false,"lstrip":false,"rstrip":false,"normalized":false},{"id":30968,"special":true,"content":"[annotation]","single_word":false,"lstrip":false,"rstrip":false,"normalized":false},{"id":30969,"special":true,"content":"[template_body]","single_word":false,"lstrip":false,"rstrip":false,"normalized":false},{"id":30970,"special":true,"content":"[property_element]","single_word":false,"lstrip":false,"rstrip":false,"normalized":false},{"id":30971,"special":true,"content":"[guard]","single_word":false,"lstrip":false,"rstrip":false,"normalized":false},{"id":30972,"special":true,"content":"[trait_bounds]","single_word":false,"lstrip":false,"rstrip":false,"normalized":false},{"id":30973,"special":true,"content":"[assert_statement]","single_word":false,"lstrip":false,"rstrip":false,"normalized":false},{"id":30974,"special":true,"content":"[pat_record]","single_word":false,"lstrip":false,"rstrip":false,"normalized":false},{"id":30975,"special":true,"content":"[pat_fields]","single_word":false,"lstrip":false,"rstrip":false,"normalized":false},{"id":30976,"special":true,"content":"[context]","single_word":false,"lstrip":false,"rstrip":false,"normalized":false},{"id":30977,"special":true,"content":"[module_binding]","single_word":false,"lstrip":false,"rstrip":false,"normalized":false},{"id":30978,"special":true,"content":"[record_expression]","single_word":false,"lstrip":false,"rstrip":false,"normalized":false},{"id":30979,"special":true,"content":"[augmented_assignment_expression]","single_word":false,"lstrip":false,"rstrip":false,"normalized":false},{"id":30980,"special":true,"content":"[expression_case]","single_word":false,"lstrip":false,"rstrip":false,"normalized":false},{"id":30981,"special":true,"content":"[class_parameter]","single_word":false,"lstrip":false,"rstrip":false,"normalized":false},{"id":30982,"special":true,"content":"[exp_record]","single_word":false,"lstrip":false,"rstrip":false,"normalized":false},{"id":30983,"special":true,"content":"[type_literal]","single_word":false,"lstrip":false,"rstrip":false,"normalized":false},{"id":30984,"special":true,"content":"[case_clause]","single_word":false,"lstrip":false,"rstrip":false,"normalized":false},{"id":30985,"special":true,"content":"[literal_type]","single_word":false,"lstrip":false,"rstrip":false,"normalized":false},{"id":30986,"special":true,"content":"[constructor_operator]","single_word":false,"lstrip":false,"rstrip":false,"normalized":false},{"id":30987,"special":true,"content":"[tuple_type]","single_word":false,"lstrip":false,"rstrip":false,"normalized":false},{"id":30988,"special":true,"content":"[module_definition]","single_word":false,"lstrip":false,"rstrip":false,"normalized":false},{"id":30989,"special":true,"content":"[regex]","single_word":false,"lstrip":false,"rstrip":false,"normalized":false},{"id":30990,"special":true,"content":"[then]","single_word":false,"lstrip":false,"rstrip":false,"normalized":false},{"id":30991,"special":true,"content":"[float_literal]","single_word":false,"lstrip":false,"rstrip":false,"normalized":false},{"id":30992,"special":true,"content":"[ERROR]","single_word":false,"lstrip":false,"rstrip":false,"normalized":false},{"id":30993,"special":true,"content":"[import_list]","single_word":false,"lstrip":false,"rstrip":false,"normalized":false},{"id":30994,"special":true,"content":"[unary_op_expression]","single_word":false,"lstrip":false,"rstrip":false,"normalized":false},{"id":30995,"special":true,"content":"[char_literal]","single_word":false,"lstrip":false,"rstrip":false,"normalized":false},{"id":30996,"special":true,"content":"[typed_pattern]","single_word":false,"lstrip":false,"rstrip":false,"normalized":false},{"id":30997,"special":true,"content":"[element_access_expression]","single_word":false,"lstrip":false,"rstrip":false,"normalized":false},{"id":30998,"special":true,"content":"[pair_expression]","single_word":false,"lstrip":false,"rstrip":false,"normalized":false},{"id":30999,"special":true,"content":"[instance_expression]","single_word":false,"lstrip":false,"rstrip":false,"normalized":false},{"id":31000,"special":true,"content":"[package_clause]","single_word":false,"lstrip":false,"rstrip":false,"normalized":false},{"id":31001,"special":true,"content":"[php_tag]","single_word":false,"lstrip":false,"rstrip":false,"normalized":false},{"id":31002,"special":true,"content":"[field]","single_word":false,"lstrip":false,"rstrip":false,"normalized":false},{"id":31003,"special":true,"content":"[instance]","single_word":false,"lstrip":false,"rstrip":false,"normalized":false},{"id":31004,"special":true,"content":"[bracketed_argument_list]","single_word":false,"lstrip":false,"rstrip":false,"normalized":false},{"id":31005,"special":true,"content":"[value_specification]","single_word":false,"lstrip":false,"rstrip":false,"normalized":false},{"id":31006,"special":true,"content":"[closure_expression]","single_word":false,"lstrip":false,"rstrip":false,"normalized":false},{"id":31007,"special":true,"content":"[closure_parameters]","single_word":false,"lstrip":false,"rstrip":false,"normalized":false},{"id":31008,"special":true,"content":"[decorator]","single_word":false,"lstrip":false,"rstrip":false,"normalized":false},{"id":31009,"special":true,"content":"[union_type]","single_word":false,"lstrip":false,"rstrip":false,"normalized":false},{"id":31010,"special":true,"content":"[prefix_operator]","single_word":false,"lstrip":false,"rstrip":false,"normalized":false},{"id":31011,"special":true,"content":"[instance_head]","single_word":false,"lstrip":false,"rstrip":false,"normalized":false},{"id":31012,"special":true,"content":"[type_cast_expression]","single_word":false,"lstrip":false,"rstrip":false,"normalized":false},{"id":31013,"special":true,"content":"[translation_unit]","single_word":false,"lstrip":false,"rstrip":false,"normalized":false},{"id":31014,"special":true,"content":"[enum_variant]","single_word":false,"lstrip":false,"rstrip":false,"normalized":false},{"id":31015,"special":true,"content":"[template_function]","single_word":false,"lstrip":false,"rstrip":false,"normalized":false},{"id":31016,"special":true,"content":"[class_body]","single_word":false,"lstrip":false,"rstrip":false,"normalized":false},{"id":31017,"special":true,"content":"[scoped_call_expression]","single_word":false,"lstrip":false,"rstrip":false,"normalized":false},{"id":31018,"special":true,"content":"[struct_expression]","single_word":false,"lstrip":false,"rstrip":false,"normalized":false},{"id":31019,"special":true,"content":"[default_parameter]","single_word":false,"lstrip":false,"rstrip":false,"normalized":false},{"id":31020,"special":true,"content":"[attribute_argument_list]","single_word":false,"lstrip":false,"rstrip":false,"normalized":false},{"id":31021,"special":true,"content":"[preproc_ifdef]","single_word":false,"lstrip":false,"rstrip":false,"normalized":false},{"id":31022,"special":true,"content":"[optional_parameter]","single_word":false,"lstrip":false,"rstrip":false,"normalized":false},{"id":31023,"special":true,"content":"[try_statement]","single_word":false,"lstrip":false,"rstrip":false,"normalized":false},{"id":31024,"special":true,"content":"[throw_statement]","single_word":false,"lstrip":false,"rstrip":false,"normalized":false},{"id":31025,"special":true,"content":"[or_pattern]","single_word":false,"lstrip":false,"rstrip":false,"normalized":false},{"id":31026,"special":true,"content":"[hash]","single_word":false,"lstrip":false,"rstrip":false,"normalized":false},{"id":31027,"special":true,"content":"[wildcard]","single_word":false,"lstrip":false,"rstrip":false,"normalized":false},{"id":31028,"special":true,"content":"[exp_list]","single_word":false,"lstrip":false,"rstrip":false,"normalized":false},{"id":31029,"special":true,"content":"[decls]","single_word":false,"lstrip":false,"rstrip":false,"normalized":false},{"id":31030,"special":true,"content":"[void_keyword]","single_word":false,"lstrip":false,"rstrip":false,"normalized":false},{"id":31031,"special":true,"content":"[conditional_expression]","single_word":false,"lstrip":false,"rstrip":false,"normalized":false},{"id":31032,"special":true,"content":"[prefix_expression]","single_word":false,"lstrip":false,"rstrip":false,"normalized":false},{"id":31033,"special":true,"content":"[accessor_list]","single_word":false,"lstrip":false,"rstrip":false,"normalized":false},{"id":31034,"special":true,"content":"[exp_tuple]","single_word":false,"lstrip":false,"rstrip":false,"normalized":false},{"id":31035,"special":true,"content":"[exp_do]","single_word":false,"lstrip":false,"rstrip":false,"normalized":false},{"id":31036,"special":true,"content":"[struct_type]","single_word":false,"lstrip":false,"rstrip":false,"normalized":false},{"id":31037,"special":true,"content":"[preproc_function_def]","single_word":false,"lstrip":false,"rstrip":false,"normalized":false},{"id":31038,"special":true,"content":"[preproc_params]","single_word":false,"lstrip":false,"rstrip":false,"normalized":false},{"id":31039,"special":true,"content":"[await_expression]","single_word":false,"lstrip":false,"rstrip":false,"normalized":false},{"id":31040,"special":true,"content":"[namespace_name]","single_word":false,"lstrip":false,"rstrip":false,"normalized":false},{"id":31041,"special":true,"content":"[namespace_name_as_prefix]","single_word":false,"lstrip":false,"rstrip":false,"normalized":false},{"id":31042,"special":true,"content":"[typed_expression]","single_word":false,"lstrip":false,"rstrip":false,"normalized":false},{"id":31043,"special":true,"content":"[range_expression]","single_word":false,"lstrip":false,"rstrip":false,"normalized":false},{"id":31044,"special":true,"content":"[type_binding]","single_word":false,"lstrip":false,"rstrip":false,"normalized":false},{"id":31045,"special":true,"content":"[field_initializer_list]","single_word":false,"lstrip":false,"rstrip":false,"normalized":false},{"id":31046,"special":true,"content":"[array_declarator]","single_word":false,"lstrip":false,"rstrip":false,"normalized":false},{"id":31047,"special":true,"content":"[exp_lambda]","single_word":false,"lstrip":false,"rstrip":false,"normalized":false},{"id":31048,"special":true,"content":"[named_imports]","single_word":false,"lstrip":false,"rstrip":false,"normalized":false},{"id":31049,"special":true,"content":"[type_spec]","single_word":false,"lstrip":false,"rstrip":false,"normalized":false},{"id":31050,"special":true,"content":"[type_declaration]","single_word":false,"lstrip":false,"rstrip":false,"normalized":false},{"id":31051,"special":true,"content":"[generic_function]","single_word":false,"lstrip":false,"rstrip":false,"normalized":false},{"id":31052,"special":true,"content":"[class_definition]","single_word":false,"lstrip":false,"rstrip":false,"normalized":false},{"id":31053,"special":true,"content":"[impl_item]","single_word":false,"lstrip":false,"rstrip":false,"normalized":false},{"id":31054,"special":true,"content":"[method_definition]","single_word":false,"lstrip":false,"rstrip":false,"normalized":false},{"id":31055,"special":true,"content":"[lambda_expression]","single_word":false,"lstrip":false,"rstrip":false,"normalized":false},{"id":31056,"special":true,"content":"[field_pattern]","single_word":false,"lstrip":false,"rstrip":false,"normalized":false},{"id":31057,"special":true,"content":"[typed_parameter]","single_word":false,"lstrip":false,"rstrip":false,"normalized":false},{"id":31058,"special":true,"content":"[var_declaration]","single_word":false,"lstrip":false,"rstrip":false,"normalized":false},{"id":31059,"special":true,"content":"[bind_pattern]","single_word":false,"lstrip":false,"rstrip":false,"normalized":false},{"id":31060,"special":true,"content":"[method_name]","single_word":false,"lstrip":false,"rstrip":false,"normalized":false},{"id":31061,"special":true,"content":"[import_from_statement]","single_word":false,"lstrip":false,"rstrip":false,"normalized":false},{"id":31062,"special":true,"content":"[tag]","single_word":false,"lstrip":false,"rstrip":false,"normalized":false},{"id":31063,"special":true,"content":"[source_file]","single_word":false,"lstrip":false,"rstrip":false,"normalized":false},{"id":31064,"special":true,"content":"[compilation_unit]","single_word":false,"lstrip":false,"rstrip":false,"normalized":false},{"id":31065,"special":true,"content":"[dictionary]","single_word":false,"lstrip":false,"rstrip":false,"normalized":false},{"id":31066,"special":true,"content":"[attribute_list]","single_word":false,"lstrip":false,"rstrip":false,"normalized":false},{"id":31067,"special":true,"content":"[attribute_argument]","single_word":false,"lstrip":false,"rstrip":false,"normalized":false},{"id":31068,"special":true,"content":"[type_parameter_declaration]","single_word":false,"lstrip":false,"rstrip":false,"normalized":false},{"id":31069,"special":true,"content":"[pat_parens]","single_word":false,"lstrip":false,"rstrip":false,"normalized":false},{"id":31070,"special":true,"content":"[method]","single_word":false,"lstrip":false,"rstrip":false,"normalized":false},{"id":31071,"special":true,"content":"[pat_wildcard]","single_word":false,"lstrip":false,"rstrip":false,"normalized":false},{"id":31072,"special":true,"content":"[script_element]","single_word":false,"lstrip":false,"rstrip":false,"normalized":false},{"id":31073,"special":true,"content":"[implicit_type]","single_word":false,"lstrip":false,"rstrip":false,"normalized":false},{"id":31074,"special":true,"content":"[ternary_expression]","single_word":false,"lstrip":false,"rstrip":false,"normalized":false},{"id":31075,"special":true,"content":"[import_item]","single_word":false,"lstrip":false,"rstrip":false,"normalized":false},{"id":31076,"special":true,"content":"[attribute_selector]","single_word":false,"lstrip":false,"rstrip":false,"normalized":false},{"id":31077,"special":true,"content":"[marker_annotation]","single_word":false,"lstrip":false,"rstrip":false,"normalized":false},{"id":31078,"special":true,"content":"[tuple_struct_pattern]","single_word":false,"lstrip":false,"rstrip":false,"normalized":false},{"id":31079,"special":true,"content":"[var_spec]","single_word":false,"lstrip":false,"rstrip":false,"normalized":false},{"id":31080,"special":true,"content":"[abstract_pointer_declarator]","single_word":false,"lstrip":false,"rstrip":false,"normalized":false},{"id":31081,"special":true,"content":"[type_parameters]","single_word":false,"lstrip":false,"rstrip":false,"normalized":false},{"id":31082,"special":true,"content":"[void_type]","single_word":false,"lstrip":false,"rstrip":false,"normalized":false},{"id":31083,"special":true,"content":"[raw_text]","single_word":false,"lstrip":false,"rstrip":false,"normalized":false},{"id":31084,"special":true,"content":"[id_selector]","single_word":false,"lstrip":false,"rstrip":false,"normalized":false},{"id":31085,"special":true,"content":"[id_name]","single_word":false,"lstrip":false,"rstrip":false,"normalized":false},{"id":31086,"special":true,"content":"[alt]","single_word":false,"lstrip":false,"rstrip":false,"normalized":false},{"id":31087,"special":true,"content":"[import_clause]","single_word":false,"lstrip":false,"rstrip":false,"normalized":false},{"id":31088,"special":true,"content":"[try_expression]","single_word":false,"lstrip":false,"rstrip":false,"normalized":false},{"id":31089,"special":true,"content":"[field_designator]","single_word":false,"lstrip":false,"rstrip":false,"normalized":false},{"id":31090,"special":true,"content":"[where]","single_word":false,"lstrip":false,"rstrip":false,"normalized":false},{"id":31091,"special":true,"content":"[then_clause]","single_word":false,"lstrip":false,"rstrip":false,"normalized":false},{"id":31092,"special":true,"content":"[exp_field]","single_word":false,"lstrip":false,"rstrip":false,"normalized":false},{"id":31093,"special":true,"content":"[new_expression]","single_word":false,"lstrip":false,"rstrip":false,"normalized":false},{"id":31094,"special":true,"content":"[class_declaration]","single_word":false,"lstrip":false,"rstrip":false,"normalized":false},{"id":31095,"special":true,"content":"[this_expression]","single_word":false,"lstrip":false,"rstrip":false,"normalized":false},{"id":31096,"special":true,"content":"[type_definition]","single_word":false,"lstrip":false,"rstrip":false,"normalized":false},{"id":31097,"special":true,"content":"[pragma]","single_word":false,"lstrip":false,"rstrip":false,"normalized":false},{"id":31098,"special":true,"content":"[initializer_pair]","single_word":false,"lstrip":false,"rstrip":false,"normalized":false},{"id":31099,"special":true,"content":"[parameterized_identifier]","single_word":false,"lstrip":false,"rstrip":false,"normalized":false},{"id":31100,"special":true,"content":"[binary]","single_word":false,"lstrip":false,"rstrip":false,"normalized":false},{"id":31101,"special":true,"content":"[crate]","single_word":false,"lstrip":false,"rstrip":false,"normalized":false},{"id":31102,"special":true,"content":"[type_list]","single_word":false,"lstrip":false,"rstrip":false,"normalized":false},{"id":31103,"special":true,"content":"[export_statement]","single_word":false,"lstrip":false,"rstrip":false,"normalized":false},{"id":31104,"special":true,"content":"[conversion_specification]","single_word":false,"lstrip":false,"rstrip":false,"normalized":false},{"id":31105,"special":true,"content":"[raw_string_literal]","single_word":false,"lstrip":false,"rstrip":false,"normalized":false},{"id":31106,"special":true,"content":"[accessor_declaration]","single_word":false,"lstrip":false,"rstrip":false,"normalized":false},{"id":31107,"special":true,"content":"[type_parens]","single_word":false,"lstrip":false,"rstrip":false,"normalized":false},{"id":31108,"special":true,"content":"[quote_expression]","single_word":false,"lstrip":false,"rstrip":false,"normalized":false},{"id":31109,"special":true,"content":"[property_signature]","single_word":false,"lstrip":false,"rstrip":false,"normalized":false},{"id":31110,"special":true,"content":"[import_spec]","single_word":false,"lstrip":false,"rstrip":false,"normalized":false},{"id":31111,"special":true,"content":"[encapsed_string]","single_word":false,"lstrip":false,"rstrip":false,"normalized":false},{"id":31112,"special":true,"content":"[array_expression]","single_word":false,"lstrip":false,"rstrip":false,"normalized":false},{"id":31113,"special":true,"content":"[element_reference]","single_word":false,"lstrip":false,"rstrip":false,"normalized":false},{"id":31114,"special":true,"content":"[property_declaration]","single_word":false,"lstrip":false,"rstrip":false,"normalized":false},{"id":31115,"special":true,"content":"[generic_name]","single_word":false,"lstrip":false,"rstrip":false,"normalized":false},{"id":31116,"special":true,"content":"[use_declaration]","single_word":false,"lstrip":false,"rstrip":false,"normalized":false},{"id":31117,"special":true,"content":"[float]","single_word":false,"lstrip":false,"rstrip":false,"normalized":false},{"id":31118,"special":true,"content":"[arrow_function]","single_word":false,"lstrip":false,"rstrip":false,"normalized":false},{"id":31119,"special":true,"content":"[enumerator]","single_word":false,"lstrip":false,"rstrip":false,"normalized":false},{"id":31120,"special":true,"content":"[fun_expression]","single_word":false,"lstrip":false,"rstrip":false,"normalized":false},{"id":31121,"special":true,"content":"[import_specifier]","single_word":false,"lstrip":false,"rstrip":false,"normalized":false},{"id":31122,"special":true,"content":"[case_statement]","single_word":false,"lstrip":false,"rstrip":false,"normalized":false},{"id":31123,"special":true,"content":"[interpolation]","single_word":false,"lstrip":false,"rstrip":false,"normalized":false},{"id":31124,"special":true,"content":"[using_directive]","single_word":false,"lstrip":false,"rstrip":false,"normalized":false},{"id":31125,"special":true,"content":"[named_argument]","single_word":false,"lstrip":false,"rstrip":false,"normalized":false},{"id":31126,"special":true,"content":"[tuple]","single_word":false,"lstrip":false,"rstrip":false,"normalized":false},{"id":31127,"special":true,"content":"[self_closing_tag]","single_word":false,"lstrip":false,"rstrip":false,"normalized":false},{"id":31128,"special":true,"content":"[do_block]","single_word":false,"lstrip":false,"rstrip":false,"normalized":false},{"id":31129,"special":true,"content":"[instance_variable]","single_word":false,"lstrip":false,"rstrip":false,"normalized":false},{"id":31130,"special":true,"content":"[system_lib_string]","single_word":false,"lstrip":false,"rstrip":false,"normalized":false},{"id":31131,"special":true,"content":"[simple_parameter]","single_word":false,"lstrip":false,"rstrip":false,"normalized":false},{"id":31132,"special":true,"content":"[sized_type_specifier]","single_word":false,"lstrip":false,"rstrip":false,"normalized":false},{"id":31133,"special":true,"content":"[list_expression]","single_word":false,"lstrip":false,"rstrip":false,"normalized":false},{"id":31134,"special":true,"content":"[break_statement]","single_word":false,"lstrip":false,"rstrip":false,"normalized":false},{"id":31135,"special":true,"content":"[pat_apply]","single_word":false,"lstrip":false,"rstrip":false,"normalized":false},{"id":31136,"special":true,"content":"[constructor_declaration]","single_word":false,"lstrip":false,"rstrip":false,"normalized":false},{"id":31137,"special":true,"content":"[none]","single_word":false,"lstrip":false,"rstrip":false,"normalized":false},{"id":31138,"special":true,"content":"[lifetime]","single_word":false,"lstrip":false,"rstrip":false,"normalized":false},{"id":31139,"special":true,"content":"[array_type]","single_word":false,"lstrip":false,"rstrip":false,"normalized":false},{"id":31140,"special":true,"content":"[program]","single_word":false,"lstrip":false,"rstrip":false,"normalized":false},{"id":31141,"special":true,"content":"[match_pattern]","single_word":false,"lstrip":false,"rstrip":false,"normalized":false},{"id":31142,"special":true,"content":"[match_arm]","single_word":false,"lstrip":false,"rstrip":false,"normalized":false},{"id":31143,"special":true,"content":"[integral_type]","single_word":false,"lstrip":false,"rstrip":false,"normalized":false},{"id":31144,"special":true,"content":"[constraint]","single_word":false,"lstrip":false,"rstrip":false,"normalized":false},{"id":31145,"special":true,"content":"[constructed_type]","single_word":false,"lstrip":false,"rstrip":false,"normalized":false},{"id":31146,"special":true,"content":"[tuple_expression]","single_word":false,"lstrip":false,"rstrip":false,"normalized":false},{"id":31147,"special":true,"content":"[child_selector]","single_word":false,"lstrip":false,"rstrip":false,"normalized":false},{"id":31148,"special":true,"content":"[self_parameter]","single_word":false,"lstrip":false,"rstrip":false,"normalized":false},{"id":31149,"special":true,"content":"[reference_declarator]","single_word":false,"lstrip":false,"rstrip":false,"normalized":false},{"id":31150,"special":true,"content":"[slice_type]","single_word":false,"lstrip":false,"rstrip":false,"normalized":false},{"id":31151,"special":true,"content":"[list]","single_word":false,"lstrip":false,"rstrip":false,"normalized":false},{"id":31152,"special":true,"content":"[index_expression]","single_word":false,"lstrip":false,"rstrip":false,"normalized":false},{"id":31153,"special":true,"content":"[match_expression]","single_word":false,"lstrip":false,"rstrip":false,"normalized":false},{"id":31154,"special":true,"content":"[boolean_literal]","single_word":false,"lstrip":false,"rstrip":false,"normalized":false},{"id":31155,"special":true,"content":"[local_declaration_statement]","single_word":false,"lstrip":false,"rstrip":false,"normalized":false},{"id":31156,"special":true,"content":"[scope_resolution]","single_word":false,"lstrip":false,"rstrip":false,"normalized":false},{"id":31157,"special":true,"content":"[template_type]","single_word":false,"lstrip":false,"rstrip":false,"normalized":false},{"id":31158,"special":true,"content":"[reference_type]","single_word":false,"lstrip":false,"rstrip":false,"normalized":false},{"id":31159,"special":true,"content":"[export]","single_word":false,"lstrip":false,"rstrip":false,"normalized":false},{"id":31160,"special":true,"content":"[boolean]","single_word":false,"lstrip":false,"rstrip":false,"normalized":false},{"id":31161,"special":true,"content":"[reference_expression]","single_word":false,"lstrip":false,"rstrip":false,"normalized":false},{"id":31162,"special":true,"content":"[update_expression]","single_word":false,"lstrip":false,"rstrip":false,"normalized":false},{"id":31163,"special":true,"content":"[composite_literal]","single_word":false,"lstrip":false,"rstrip":false,"normalized":false},{"id":31164,"special":true,"content":"[field_declaration_list]","single_word":false,"lstrip":false,"rstrip":false,"normalized":false},{"id":31165,"special":true,"content":"[meta_arguments]","single_word":false,"lstrip":false,"rstrip":false,"normalized":false},{"id":31166,"special":true,"content":"[field_initializer]","single_word":false,"lstrip":false,"rstrip":false,"normalized":false},{"id":31167,"special":true,"content":"[extended_module_path]","single_word":false,"lstrip":false,"rstrip":false,"normalized":false},{"id":31168,"special":true,"content":"[qualified_variable]","single_word":false,"lstrip":false,"rstrip":false,"normalized":false},{"id":31169,"special":true,"content":"[import]","single_word":false,"lstrip":false,"rstrip":false,"normalized":false},{"id":31170,"special":true,"content":"[important]","single_word":false,"lstrip":false,"rstrip":false,"normalized":false},{"id":31171,"special":true,"content":"[val_definition]","single_word":false,"lstrip":false,"rstrip":false,"normalized":false},{"id":31172,"special":true,"content":"[cast_expression]","single_word":false,"lstrip":false,"rstrip":false,"normalized":false},{"id":31173,"special":true,"content":"[null_literal]","single_word":false,"lstrip":false,"rstrip":false,"normalized":false},{"id":31174,"special":true,"content":"[qualified_module]","single_word":false,"lstrip":false,"rstrip":false,"normalized":false},{"id":31175,"special":true,"content":"[hash_key_symbol]","single_word":false,"lstrip":false,"rstrip":false,"normalized":false},{"id":31176,"special":true,"content":"[if_expression]","single_word":false,"lstrip":false,"rstrip":false,"normalized":false},{"id":31177,"special":true,"content":"[labeled_argument]","single_word":false,"lstrip":false,"rstrip":false,"normalized":false},{"id":31178,"special":true,"content":"[patterns]","single_word":false,"lstrip":false,"rstrip":false,"normalized":false},{"id":31179,"special":true,"content":"[macro_invocation]","single_word":false,"lstrip":false,"rstrip":false,"normalized":false},{"id":31180,"special":true,"content":"[condition_clause]","single_word":false,"lstrip":false,"rstrip":false,"normalized":false},{"id":31181,"special":true,"content":"[signature]","single_word":false,"lstrip":false,"rstrip":false,"normalized":false},{"id":31182,"special":true,"content":"[import_statement]","single_word":false,"lstrip":false,"rstrip":false,"normalized":false},{"id":31183,"special":true,"content":"[comparison_operator]","single_word":false,"lstrip":false,"rstrip":false,"normalized":false},{"id":31184,"special":true,"content":"[parenthesized_pattern]","single_word":false,"lstrip":false,"rstrip":false,"normalized":false},{"id":31185,"special":true,"content":"[operator_identifier]","single_word":false,"lstrip":false,"rstrip":false,"normalized":false},{"id":31186,"special":true,"content":"[required_parameter]","single_word":false,"lstrip":false,"rstrip":false,"normalized":false},{"id":31187,"special":true,"content":"[declaration_list]","single_word":false,"lstrip":false,"rstrip":false,"normalized":false},{"id":31188,"special":true,"content":"[function_declaration]","single_word":false,"lstrip":false,"rstrip":false,"normalized":false},{"id":31189,"special":true,"content":"[equals_value_clause]","single_word":false,"lstrip":false,"rstrip":false,"normalized":false},{"id":31190,"special":true,"content":"[binary_operator]","single_word":false,"lstrip":false,"rstrip":false,"normalized":false},{"id":31191,"special":true,"content":"[field_get_expression]","single_word":false,"lstrip":false,"rstrip":false,"normalized":false},{"id":31192,"special":true,"content":"[storage_class_specifier]","single_word":false,"lstrip":false,"rstrip":false,"normalized":false},{"id":31193,"special":true,"content":"[local_variable_declaration]","single_word":false,"lstrip":false,"rstrip":false,"normalized":false},{"id":31194,"special":true,"content":"[label_name]","single_word":false,"lstrip":false,"rstrip":false,"normalized":false},{"id":31195,"special":true,"content":"[type_argument_list]","single_word":false,"lstrip":false,"rstrip":false,"normalized":false},{"id":31196,"special":true,"content":"[lexical_declaration]","single_word":false,"lstrip":false,"rstrip":false,"normalized":false},{"id":31197,"special":true,"content":"[array_creation_expression]","single_word":false,"lstrip":false,"rstrip":false,"normalized":false},{"id":31198,"special":true,"content":"[function_type]","single_word":false,"lstrip":false,"rstrip":false,"normalized":false},{"id":31199,"special":true,"content":"[initializer_list]","single_word":false,"lstrip":false,"rstrip":false,"normalized":false},{"id":31200,"special":true,"content":"[stmt]","single_word":false,"lstrip":false,"rstrip":false,"normalized":false},{"id":31201,"special":true,"content":"[template_argument_list]","single_word":false,"lstrip":false,"rstrip":false,"normalized":false},{"id":31202,"special":true,"content":"[macro_argument_list]","single_word":false,"lstrip":false,"rstrip":false,"normalized":false},{"id":31203,"special":true,"content":"[else_clause]","single_word":false,"lstrip":false,"rstrip":false,"normalized":false},{"id":31204,"special":true,"content":"[preproc_include]","single_word":false,"lstrip":false,"rstrip":false,"normalized":false},{"id":31205,"special":true,"content":"[fun]","single_word":false,"lstrip":false,"rstrip":false,"normalized":false},{"id":31206,"special":true,"content":"[formal_parameter]","single_word":false,"lstrip":false,"rstrip":false,"normalized":false},{"id":31207,"special":true,"content":"[assignment_operator]","single_word":false,"lstrip":false,"rstrip":false,"normalized":false},{"id":31208,"special":true,"content":"[decimal_integer_literal]","single_word":false,"lstrip":false,"rstrip":false,"normalized":false},{"id":31209,"special":true,"content":"[mutable_specifier]","single_word":false,"lstrip":false,"rstrip":false,"normalized":false},{"id":31210,"special":true,"content":"[macro_expression]","single_word":false,"lstrip":false,"rstrip":false,"normalized":false},{"id":31211,"special":true,"content":"[macro_identifier]","single_word":false,"lstrip":false,"rstrip":false,"normalized":false},{"id":31212,"special":true,"content":"[for_statement]","single_word":false,"lstrip":false,"rstrip":false,"normalized":false},{"id":31213,"special":true,"content":"[dotted_name]","single_word":false,"lstrip":false,"rstrip":false,"normalized":false},{"id":31214,"special":true,"content":"[function_item]","single_word":false,"lstrip":false,"rstrip":false,"normalized":false},{"id":31215,"special":true,"content":"[literal_value]","single_word":false,"lstrip":false,"rstrip":false,"normalized":false},{"id":31216,"special":true,"content":"[function_name]","single_word":false,"lstrip":false,"rstrip":false,"normalized":false},{"id":31217,"special":true,"content":"[function_call_expression]","single_word":false,"lstrip":false,"rstrip":false,"normalized":false},{"id":31218,"special":true,"content":"[scoped_type_identifier]","single_word":false,"lstrip":false,"rstrip":false,"normalized":false},{"id":31219,"special":true,"content":"[null]","single_word":false,"lstrip":false,"rstrip":false,"normalized":false},{"id":31220,"special":true,"content":"[attribute_item]","single_word":false,"lstrip":false,"rstrip":false,"normalized":false},{"id":31221,"special":true,"content":"[constructor_pattern]","single_word":false,"lstrip":false,"rstrip":false,"normalized":false},{"id":31222,"special":true,"content":"[subscript]","single_word":false,"lstrip":false,"rstrip":false,"normalized":false},{"id":31223,"special":true,"content":"[field_access]","single_word":false,"lstrip":false,"rstrip":false,"normalized":false},{"id":31224,"special":true,"content":"[keyed_element]","single_word":false,"lstrip":false,"rstrip":false,"normalized":false},{"id":31225,"special":true,"content":"[object_creation_expression]","single_word":false,"lstrip":false,"rstrip":false,"normalized":false},{"id":31226,"special":true,"content":"[let_declaration]","single_word":false,"lstrip":false,"rstrip":false,"normalized":false},{"id":31227,"special":true,"content":"[product_expression]","single_word":false,"lstrip":false,"rstrip":false,"normalized":false},{"id":31228,"special":true,"content":"[simple_symbol]","single_word":false,"lstrip":false,"rstrip":false,"normalized":false},{"id":31229,"special":true,"content":"[member_call_expression]","single_word":false,"lstrip":false,"rstrip":false,"normalized":false},{"id":31230,"special":true,"content":"[false]","single_word":false,"lstrip":false,"rstrip":false,"normalized":false},{"id":31231,"special":true,"content":"[type_apply]","single_word":false,"lstrip":false,"rstrip":false,"normalized":false},{"id":31232,"special":true,"content":"[pointer_expression]","single_word":false,"lstrip":false,"rstrip":false,"normalized":false},{"id":31233,"special":true,"content":"[nil]","single_word":false,"lstrip":false,"rstrip":false,"normalized":false},{"id":31234,"special":true,"content":"[float_value]","single_word":false,"lstrip":false,"rstrip":false,"normalized":false},{"id":31235,"special":true,"content":"[struct_specifier]","single_word":false,"lstrip":false,"rstrip":false,"normalized":false},{"id":31236,"special":true,"content":"[type_qualifier]","single_word":false,"lstrip":false,"rstrip":false,"normalized":false},{"id":31237,"special":true,"content":"[exp_parens]","single_word":false,"lstrip":false,"rstrip":false,"normalized":false},{"id":31238,"special":true,"content":"[true]","single_word":false,"lstrip":false,"rstrip":false,"normalized":false},{"id":31239,"special":true,"content":"[short_var_declaration]","single_word":false,"lstrip":false,"rstrip":false,"normalized":false},{"id":31240,"special":true,"content":"[import_declaration]","single_word":false,"lstrip":false,"rstrip":false,"normalized":false},{"id":31241,"special":true,"content":"[keyword_argument]","single_word":false,"lstrip":false,"rstrip":false,"normalized":false},{"id":31242,"special":true,"content":"[tuple_pattern]","single_word":false,"lstrip":false,"rstrip":false,"normalized":false},{"id":31243,"special":true,"content":"[stable_identifier]","single_word":false,"lstrip":false,"rstrip":false,"normalized":false},{"id":31244,"special":true,"content":"[sequence_expression]","single_word":false,"lstrip":false,"rstrip":false,"normalized":false},{"id":31245,"special":true,"content":"[assignment_statement]","single_word":false,"lstrip":false,"rstrip":false,"normalized":false},{"id":31246,"special":true,"content":"[package_identifier]","single_word":false,"lstrip":false,"rstrip":false,"normalized":false},{"id":31247,"special":true,"content":"[let_expression]","single_word":false,"lstrip":false,"rstrip":false,"normalized":false},{"id":31248,"special":true,"content":"[color_value]","single_word":false,"lstrip":false,"rstrip":false,"normalized":false},{"id":31249,"special":true,"content":"[pointer_type]","single_word":false,"lstrip":false,"rstrip":false,"normalized":false},{"id":31250,"special":true,"content":"[infix_operator]","single_word":false,"lstrip":false,"rstrip":false,"normalized":false},{"id":31251,"special":true,"content":"[init_declarator]","single_word":false,"lstrip":false,"rstrip":false,"normalized":false},{"id":31252,"special":true,"content":"[field_path]","single_word":false,"lstrip":false,"rstrip":false,"normalized":false},{"id":31253,"special":true,"content":"[modifier]","single_word":false,"lstrip":false,"rstrip":false,"normalized":false},{"id":31254,"special":true,"content":"[self]","single_word":false,"lstrip":false,"rstrip":false,"normalized":false},{"id":31255,"special":true,"content":"[constant]","single_word":false,"lstrip":false,"rstrip":false,"normalized":false},{"id":31256,"special":true,"content":"[visibility_modifier]","single_word":false,"lstrip":false,"rstrip":false,"normalized":false},{"id":31257,"special":true,"content":"[qualified_type]","single_word":false,"lstrip":false,"rstrip":false,"normalized":false},{"id":31258,"special":true,"content":"[type_annotation]","single_word":false,"lstrip":false,"rstrip":false,"normalized":false},{"id":31259,"special":true,"content":"[qualified_name]","single_word":false,"lstrip":false,"rstrip":false,"normalized":false},{"id":31260,"special":true,"content":"[match_case]","single_word":false,"lstrip":false,"rstrip":false,"normalized":false},{"id":31261,"special":true,"content":"[variable_declaration]","single_word":false,"lstrip":false,"rstrip":false,"normalized":false},{"id":31262,"special":true,"content":"[type_variable]","single_word":false,"lstrip":false,"rstrip":false,"normalized":false},{"id":31263,"special":true,"content":"[field_name]","single_word":false,"lstrip":false,"rstrip":false,"normalized":false},{"id":31264,"special":true,"content":"[type_descriptor]","single_word":false,"lstrip":false,"rstrip":false,"normalized":false},{"id":31265,"special":true,"content":"[exp_literal]","single_word":false,"lstrip":false,"rstrip":false,"normalized":false},{"id":31266,"special":true,"content":"[modifiers]","single_word":false,"lstrip":false,"rstrip":false,"normalized":false},{"id":31267,"special":true,"content":"[function_declarator]","single_word":false,"lstrip":false,"rstrip":false,"normalized":false},{"id":31268,"special":true,"content":"[exp_infix]","single_word":false,"lstrip":false,"rstrip":false,"normalized":false},{"id":31269,"special":true,"content":"[operator]","single_word":false,"lstrip":false,"rstrip":false,"normalized":false},{"id":31270,"special":true,"content":"[token_tree]","single_word":false,"lstrip":false,"rstrip":false,"normalized":false},{"id":31271,"special":true,"content":"[meta_item]","single_word":false,"lstrip":false,"rstrip":false,"normalized":false},{"id":31272,"special":true,"content":"[string_value]","single_word":false,"lstrip":false,"rstrip":false,"normalized":false},{"id":31273,"special":true,"content":"[this]","single_word":false,"lstrip":false,"rstrip":false,"normalized":false},{"id":31274,"special":true,"content":"[namespace_identifier]","single_word":false,"lstrip":false,"rstrip":false,"normalized":false},{"id":31275,"special":true,"content":"[generic_type]","single_word":false,"lstrip":false,"rstrip":false,"normalized":false},{"id":31276,"special":true,"content":"[predefined_type]","single_word":false,"lstrip":false,"rstrip":false,"normalized":false},{"id":31277,"special":true,"content":"[function]","single_word":false,"lstrip":false,"rstrip":false,"normalized":false},{"id":31278,"special":true,"content":"[invocation_expression]","single_word":false,"lstrip":false,"rstrip":false,"normalized":false},{"id":31279,"special":true,"content":"[pointer_declarator]","single_word":false,"lstrip":false,"rstrip":false,"normalized":false},{"id":31280,"special":true,"content":"[parameters]","single_word":false,"lstrip":false,"rstrip":false,"normalized":false},{"id":31281,"special":true,"content":"[line_comment]","single_word":false,"lstrip":false,"rstrip":false,"normalized":false},{"id":31282,"special":true,"content":"[constructor]","single_word":false,"lstrip":false,"rstrip":false,"normalized":false},{"id":31283,"special":true,"content":"[preproc_def]","single_word":false,"lstrip":false,"rstrip":false,"normalized":false},{"id":31284,"special":true,"content":"[qualified_identifier]","single_word":false,"lstrip":false,"rstrip":false,"normalized":false},{"id":31285,"special":true,"content":"[infix_expression]","single_word":false,"lstrip":false,"rstrip":false,"normalized":false},{"id":31286,"special":true,"content":"[method_declaration]","single_word":false,"lstrip":false,"rstrip":false,"normalized":false},{"id":31287,"special":true,"content":"[type_constructor_path]","single_word":false,"lstrip":false,"rstrip":false,"normalized":false},{"id":31288,"special":true,"content":"[type_arguments]","single_word":false,"lstrip":false,"rstrip":false,"normalized":false},{"id":31289,"special":true,"content":"[statement_block]","single_word":false,"lstrip":false,"rstrip":false,"normalized":false},{"id":31290,"special":true,"content":"[preproc_arg]","single_word":false,"lstrip":false,"rstrip":false,"normalized":false},{"id":31291,"special":true,"content":"[pseudo_class_selector]","single_word":false,"lstrip":false,"rstrip":false,"normalized":false},{"id":31292,"special":true,"content":"[interpreted_string_literal]","single_word":false,"lstrip":false,"rstrip":false,"normalized":false},{"id":31293,"special":true,"content":"[const_spec]","single_word":false,"lstrip":false,"rstrip":false,"normalized":false},{"id":31294,"special":true,"content":"[comma]","single_word":false,"lstrip":false,"rstrip":false,"normalized":false},{"id":31295,"special":true,"content":"[type_constructor]","single_word":false,"lstrip":false,"rstrip":false,"normalized":false},{"id":31296,"special":true,"content":"[array_element_initializer]","single_word":false,"lstrip":false,"rstrip":false,"normalized":false},{"id":31297,"special":true,"content":"[value_definition]","single_word":false,"lstrip":false,"rstrip":false,"normalized":false},{"id":31298,"special":true,"content":"[function_definition]","single_word":false,"lstrip":false,"rstrip":false,"normalized":false},{"id":31299,"special":true,"content":"[let_binding]","single_word":false,"lstrip":false,"rstrip":false,"normalized":false},{"id":31300,"special":true,"content":"[unary_expression]","single_word":false,"lstrip":false,"rstrip":false,"normalized":false},{"id":31301,"special":true,"content":"[constructor_path]","single_word":false,"lstrip":false,"rstrip":false,"normalized":false},{"id":31302,"special":true,"content":"[pat_name]","single_word":false,"lstrip":false,"rstrip":false,"normalized":false},{"id":31303,"special":true,"content":"[constructor_name]","single_word":false,"lstrip":false,"rstrip":false,"normalized":false},{"id":31304,"special":true,"content":"[formal_parameters]","single_word":false,"lstrip":false,"rstrip":false,"normalized":false},{"id":31305,"special":true,"content":"[exp_apply]","single_word":false,"lstrip":false,"rstrip":false,"normalized":false},{"id":31306,"special":true,"content":"[array]","single_word":false,"lstrip":false,"rstrip":false,"normalized":false},{"id":31307,"special":true,"content":"[field_declaration]","single_word":false,"lstrip":false,"rstrip":false,"normalized":false},{"id":31308,"special":true,"content":"[descendant_selector]","single_word":false,"lstrip":false,"rstrip":false,"normalized":false},{"id":31309,"special":true,"content":"[integer_literal]","single_word":false,"lstrip":false,"rstrip":false,"normalized":false},{"id":31310,"special":true,"content":"[assignment]","single_word":false,"lstrip":false,"rstrip":false,"normalized":false},{"id":31311,"special":true,"content":"[subscript_expression]","single_word":false,"lstrip":false,"rstrip":false,"normalized":false},{"id":31312,"special":true,"content":"[compound_statement]","single_word":false,"lstrip":false,"rstrip":false,"normalized":false},{"id":31313,"special":true,"content":"[module_path]","single_word":false,"lstrip":false,"rstrip":false,"normalized":false},{"id":31314,"special":true,"content":"[module]","single_word":false,"lstrip":false,"rstrip":false,"normalized":false},{"id":31315,"special":true,"content":"[method_invocation]","single_word":false,"lstrip":false,"rstrip":false,"normalized":false},{"id":31316,"special":true,"content":"[variable_declarator]","single_word":false,"lstrip":false,"rstrip":false,"normalized":false},{"id":31317,"special":true,"content":"[plain_value]","single_word":false,"lstrip":false,"rstrip":false,"normalized":false},{"id":31318,"special":true,"content":"[type_name]","single_word":false,"lstrip":false,"rstrip":false,"normalized":false},{"id":31319,"special":true,"content":"[object]","single_word":false,"lstrip":false,"rstrip":false,"normalized":false},{"id":31320,"special":true,"content":"[type]","single_word":false,"lstrip":false,"rstrip":false,"normalized":false},{"id":31321,"special":true,"content":"[parameter]","single_word":false,"lstrip":false,"rstrip":false,"normalized":false},{"id":31322,"special":true,"content":"[value_pattern]","single_word":false,"lstrip":false,"rstrip":false,"normalized":false},{"id":31323,"special":true,"content":"[module_name]","single_word":false,"lstrip":false,"rstrip":false,"normalized":false},{"id":31324,"special":true,"content":"[primitive_type]","single_word":false,"lstrip":false,"rstrip":false,"normalized":false},{"id":31325,"special":true,"content":"[member_access_expression]","single_word":false,"lstrip":false,"rstrip":false,"normalized":false},{"id":31326,"special":true,"content":"[parameter_list]","single_word":false,"lstrip":false,"rstrip":false,"normalized":false},{"id":31327,"special":true,"content":"[integer]","single_word":false,"lstrip":false,"rstrip":false,"normalized":false},{"id":31328,"special":true,"content":"[rule_set]","single_word":false,"lstrip":false,"rstrip":false,"normalized":false},{"id":31329,"special":true,"content":"[selectors]","single_word":false,"lstrip":false,"rstrip":false,"normalized":false},{"id":31330,"special":true,"content":"[selector_expression]","single_word":false,"lstrip":false,"rstrip":false,"normalized":false},{"id":31331,"special":true,"content":"[unit]","single_word":false,"lstrip":false,"rstrip":false,"normalized":false},{"id":31332,"special":true,"content":"[variable_name]","single_word":false,"lstrip":false,"rstrip":false,"normalized":false},{"id":31333,"special":true,"content":"[return_statement]","single_word":false,"lstrip":false,"rstrip":false,"normalized":false},{"id":31334,"special":true,"content":"[escape_sequence]","single_word":false,"lstrip":false,"rstrip":false,"normalized":false},{"id":31335,"special":true,"content":"[if_statement]","single_word":false,"lstrip":false,"rstrip":false,"normalized":false},{"id":31336,"special":true,"content":"[string_literal]","single_word":false,"lstrip":false,"rstrip":false,"normalized":false},{"id":31337,"special":true,"content":"[int_literal]","single_word":false,"lstrip":false,"rstrip":false,"normalized":false},{"id":31338,"special":true,"content":"[parameter_declaration]","single_word":false,"lstrip":false,"rstrip":false,"normalized":false},{"id":31339,"special":true,"content":"[application_expression]","single_word":false,"lstrip":false,"rstrip":false,"normalized":false},{"id":31340,"special":true,"content":"[scoped_identifier]","single_word":false,"lstrip":false,"rstrip":false,"normalized":false},{"id":31341,"special":true,"content":"[argument]","single_word":false,"lstrip":false,"rstrip":false,"normalized":false},{"id":31342,"special":true,"content":"[string_fragment]","single_word":false,"lstrip":false,"rstrip":false,"normalized":false},{"id":31343,"special":true,"content":"[integer_value]","single_word":false,"lstrip":false,"rstrip":false,"normalized":false},{"id":31344,"special":true,"content":"[parenthesized_expression]","single_word":false,"lstrip":false,"rstrip":false,"normalized":false},{"id":31345,"special":true,"content":"[exp_name]","single_word":false,"lstrip":false,"rstrip":false,"normalized":false},{"id":31346,"special":true,"content":"[member_expression]","single_word":false,"lstrip":false,"rstrip":false,"normalized":false},{"id":31347,"special":true,"content":"[assignment_expression]","single_word":false,"lstrip":false,"rstrip":false,"normalized":false},{"id":31348,"special":true,"content":"[number_literal]","single_word":false,"lstrip":false,"rstrip":false,"normalized":false},{"id":31349,"special":true,"content":"[call]","single_word":false,"lstrip":false,"rstrip":false,"normalized":false},{"id":31350,"special":true,"content":"[expression_list]","single_word":false,"lstrip":false,"rstrip":false,"normalized":false},{"id":31351,"special":true,"content":"[text]","single_word":false,"lstrip":false,"rstrip":false,"normalized":false},{"id":31352,"special":true,"content":"[class_selector]","single_word":false,"lstrip":false,"rstrip":false,"normalized":false},{"id":31353,"special":true,"content":"[property_name]","single_word":false,"lstrip":false,"rstrip":false,"normalized":false},{"id":31354,"special":true,"content":"[name]","single_word":false,"lstrip":false,"rstrip":false,"normalized":false},{"id":31355,"special":true,"content":"[property_identifier]","single_word":false,"lstrip":false,"rstrip":false,"normalized":false},{"id":31356,"special":true,"content":"[variable]","single_word":false,"lstrip":false,"rstrip":false,"normalized":false},{"id":31357,"special":true,"content":"[declaration]","single_word":false,"lstrip":false,"rstrip":false,"normalized":false},{"id":31358,"special":true,"content":"[field_expression]","single_word":false,"lstrip":false,"rstrip":false,"normalized":false},{"id":31359,"special":true,"content":"[class_name]","single_word":false,"lstrip":false,"rstrip":false,"normalized":false},{"id":31360,"special":true,"content":"[binary_expression]","single_word":false,"lstrip":false,"rstrip":false,"normalized":false},{"id":31361,"special":true,"content":"[number]","single_word":false,"lstrip":false,"rstrip":false,"normalized":false},{"id":31362,"special":true,"content":"[value_path]","single_word":false,"lstrip":false,"rstrip":false,"normalized":false},{"id":31363,"special":true,"content":"[block]","single_word":false,"lstrip":false,"rstrip":false,"normalized":false},{"id":31364,"special":true,"content":"[end_tag]","single_word":false,"lstrip":false,"rstrip":false,"normalized":false},{"id":31365,"special":true,"content":"[arguments]","single_word":false,"lstrip":false,"rstrip":false,"normalized":false},{"id":31366,"special":true,"content":"[pair]","single_word":false,"lstrip":false,"rstrip":false,"normalized":false},{"id":31367,"special":true,"content":"[start_tag]","single_word":false,"lstrip":false,"rstrip":false,"normalized":false},{"id":31368,"special":true,"content":"[quoted_attribute_value]","single_word":false,"lstrip":false,"rstrip":false,"normalized":false},{"id":31369,"special":true,"content":"[value_name]","single_word":false,"lstrip":false,"rstrip":false,"normalized":false},{"id":31370,"special":true,"content":"[attribute_value]","single_word":false,"lstrip":false,"rstrip":false,"normalized":false},{"id":31371,"special":true,"content":"[attribute_name]","single_word":false,"lstrip":false,"rstrip":false,"normalized":false},{"id":31372,"special":true,"content":"[expression_statement]","single_word":false,"lstrip":false,"rstrip":false,"normalized":false},{"id":31373,"special":true,"content":"[element]","single_word":false,"lstrip":false,"rstrip":false,"normalized":false},{"id":31374,"special":true,"content":"[field_identifier]","single_word":false,"lstrip":false,"rstrip":false,"normalized":false},{"id":31375,"special":true,"content":"[comment]","single_word":false,"lstrip":false,"rstrip":false,"normalized":false},{"id":31376,"special":true,"content":"[string_content]","single_word":false,"lstrip":false,"rstrip":false,"normalized":false},{"id":31377,"special":true,"content":"[type_identifier]","single_word":false,"lstrip":false,"rstrip":false,"normalized":false},{"id":31378,"special":true,"content":"[attribute]","single_word":false,"lstrip":false,"rstrip":false,"normalized":false},{"id":31379,"special":true,"content":"[call_expression]","single_word":false,"lstrip":false,"rstrip":false,"normalized":false},{"id":31380,"special":true,"content":"[argument_list]","single_word":false,"lstrip":false,"rstrip":false,"normalized":false},{"id":31381,"special":true,"content":"[tag_name]","single_word":false,"lstrip":false,"rstrip":false,"normalized":false},{"id":31382,"special":true,"content":"[string]","single_word":false,"lstrip":false,"rstrip":false,"normalized":false},{"id":31383,"special":true,"content":"[identifier]","single_word":false,"lstrip":false,"rstrip":false,"normalized":false},{"id":31384,"special":true,"content":"[co_yield_statement]","single_word":false,"lstrip":false,"rstrip":false,"normalized":false},{"id":31385,"special":true,"content":"[nullsafe_member_access_expression]","single_word":false,"lstrip":false,"rstrip":false,"normalized":false},{"id":31386,"special":true,"content":"[implicit_stack_alloc_array_creation_expression]","single_word":false,"lstrip":false,"rstrip":false,"normalized":false},{"id":31387,"special":true,"content":"[flow_maybe_type]","single_word":false,"lstrip":false,"rstrip":false,"normalized":false},{"id":31388,"special":true,"content":"[forward_argument]","single_word":false,"lstrip":false,"rstrip":false,"normalized":false},{"id":31389,"special":true,"content":"[parenthesized_variable_designation]","single_word":false,"lstrip":false,"rstrip":false,"normalized":false},{"id":31390,"special":true,"content":"[ref_type_expression]","single_word":false,"lstrip":false,"rstrip":false,"normalized":false},{"id":31391,"special":true,"content":"[existential_type]","single_word":false,"lstrip":false,"rstrip":false,"normalized":false},{"id":31392,"special":true,"content":"[ms_based_modifier]","single_word":false,"lstrip":false,"rstrip":false,"normalized":false},{"id":31393,"special":true,"content":"[ms_unaligned_ptr_modifier]","single_word":false,"lstrip":false,"rstrip":false,"normalized":false},{"id":31394,"special":true,"content":"[parenthesized_list_splat]","single_word":false,"lstrip":false,"rstrip":false,"normalized":false}],"normalizer":null,"pre_tokenizer":{"type":"ByteLevel","add_prefix_space":false,"trim_offsets":true},"post_processor":null,"decoder":{"type":"ByteLevel","add_prefix_space":true,"trim_offsets":true},"model":{"type":"BPE","dropout":null,"unk_token":null,"continuing_subword_prefix":null,"end_of_word_suffix":null,"fuse_unk":false,"vocab":{"[UNK]":0,"[CLS]":1,"[SEP]":2,"[PAD]":3,"[MASK]":4,"[BPE]":5,"\r":6,"\t":7,"\u000b":8,"\n\n":9,"\n":10,"        ":11,"    ":12,"  ":13," ":14,"!":15,"\"":16,"#":17,"$":18,"%":19,"&":20,"'":21,"(":22,")":23,"*":24,"+":25,",":26,"-":27,".":28,"/":29,"0":30,"1":31,"2":32,"3":33,"4":34,"5":35,"6":36,"7":37,"8":38,"9":39,":":40,";":41,"<":42,"=":43,">":44,"?":45,"@":46,"A":47,"B":48,"C":49,"D":50,"E":51,"F":52,"G":53,"H":54,"I":55,"J":56,"K":57,"L":58,"M":59,"N":60,"O":61,"P":62,"Q":63,"R":64,"S":65,"T":66,"U":67,"V":68,"W":69,"X":70,"Y":71,"Z":72,"[":73,"\\":74,"]":75,"^":76,"_":77,"`":78,"a":79,"b":80,"c":81,"d":82,"e":83,"f":84,"g":85,"h":86,"i":87,"j":88,"k":89,"l":90,"m":91,"n":92,"o":93,"p":94,"q":95,"r":96,"s":97,"t":98,"u":99,"v":100,"w":101,"x":102,"y":103,"z":104,"{":105,"|":106,"}":107,"~":108,"¡":109,"¢":110,"£":111,"¤":112,"¥":113,"¦":114,"§":115,"¨":116,"©":117,"ª":118,"«":119,"¬":120,"®":121,"¯":122,"°":123,"±":124,"²":125,"³":126,"´":127,"µ":128,"¶":129,"·":130,"¸":131,"¹":132,"º":133,"»":134,"¼":135,"½":136,"¾":137,"¿":138,"À":139,"Á":140,"Â":141,"Ã":142,"Ä":143,"Å":144,"Æ":145,"Ç":146,"È":147,"É":148,"Ê":149,"Ë":150,"Ì":151,"Í":152,"Î":153,"Ï":154,"Ð":155,"Ñ":156,"Ò":157,"Ó":158,"Ô":159,"Õ":160,"Ö":161,"×":162,"Ø":163,"Ù":164,"Ú":165,"Û":166,"Ü":167,"Ý":168,"Þ":169,"ß":170,"à":171,"á":172,"â":173,"ã":174,"ä":175,"å":176,"æ":177,"ç":178,"è":179,"é":180,"ê":181,"ë":182,"ì":183,"í":184,"î":185,"ï":186,"ð":187,"ñ":188,"ò":189,"ó":190,"ô":191,"õ":192,"ö":193,"÷":194,"ø":195,"ù":196,"ú":197,"û":198,"ü":199,"ý":200,"þ":201,"ÿ":202,"Ā":203,"ā":204,"Ă":205,"ă":206,"Ą":207,"ą":208,"Ć":209,"ć":210,"Ĉ":211,"ĉ":212,"Ċ":213,"ċ":214,"Č":215,"č":216,"Ď":217,"ď":218,"Đ":219,"đ":220,"Ē":221,"ē":222,"Ĕ":223,"ĕ":224,"Ė":225,"ė":226,"Ę":227,"ę":228,"Ě":229,"ě":230,"Ĝ":231,"ĝ":232,"Ğ":233,"ğ":234,"Ġ":235,"ġ":236,"Ģ":237,"ģ":238,"Ĥ":239,"ĥ":240,"Ħ":241,"ħ":242,"Ĩ":243,"ĩ":244,"Ī":245,"ī":246,"Ĭ":247,"ĭ":248,"Į":249,"į":250,"İ":251,"ı":252,"Ĳ":253,"ĳ":254,"Ĵ":255,"ĵ":256,"Ķ":257,"ķ":258,"ĸ":259,"Ĺ":260,"ĺ":261,"Ļ":262,"ļ":263,"Ľ":264,"ľ":265,"Ŀ":266,"ŀ":267,"Ł":268,"ł":269,"Ń":270,"ĠĠ":271,"ĠĠĠĠ":272,"ĠĠĠĠĠĠĠĠ":273,"in":274,"er":275,"on":276,"re":277,"at":278,"ĊĠĠĠĠĠĠĠĠ":279,"st":280,"en":281,"or":282,"le":283,"00":284,"ĊĠĠĠĠ":285,"th":286,"an":287,"al":288,"se":289,"ĉĉ":290,"ar":291,"de":292,"ti":293,"--":294,"ro":295,"te":296,"me":297,"ss":298,"ĊĠĠ":299,"co":300,"ing":301,"ce":302,"la":303,"li":304,"Ġth":305,"un":306,"is":307,"tr":308,"//":309,"ge":310,"ur":311,"to":312,"tion":313,"ent":314,"</":315,"pe":316,"ac":317,"id":318,"**":319,"it":320,"ĊĊ":321,"ate":322,"lo":323,"con":324,"Ġ*":325,"ion":326,"Ġthe":327,"ad":328,"mp":329,"ch":330,"fi":331,"ĊĠĠĠĠĠĠĠĠĠĠĠĠĠĠĠĠ":332,"Ċĉĉ":333,"ct":334,"ĊĠĠĠĠĠĠĠĠĠĠĠĠ":335,"ame":336,"ri":337,"ue":338,"0000":339,"sp":340,"int":341,"----":342,"ut":343,"ul":344,"==":345,"di":346,"ty":347,"->":348,"Ġa":349,"ĊĠĠĠĠĠĠ":350,"lass":351,"ht":352,"ap":353,"el":354,"ex":355,"ed":356,"class":357,"Ċĉ":358,"if":359,"Ġf":360,"Ġo":361,"::":362,"Ġs":363,"and":364,"Ġp":365,"Ġb":366,"Re":367,"str":368,"ation":369,"il":370,"cc":371,"ĠĠĠĠĠĠĠĠĠĠĠĠĠĠĠĠ":372,"ab":373,"Ġ1":374,"ol":375,"Ġw":376,"ret":377,"ub":378,"um":379,"si":380,"ma":381,"urn":382,"no":383,"he":384,"et":385,"In":386,"ic":387,"..":388,"ter":389,"ver":390,"ff":391,"ve":392,"Ġin":393,"get":394,"as":395,"val":396,"return":397,"mo":398,"us":399,"Ġto":400,"Ġ0":401,"def":402,"ine":403,"ĠĠĠ":404,"up":405,"****":406,"ction":407,"ck":408,"op":409,"am":410,"ort":411,"name":412,"AA":413,"type":414,"ig":415,"do":416,"Ġc":417,"ne":418,"end":419,"20":420,"sc":421,"Ġre":422,"ĠC":423,"ata":424,"Ġof":425,"ĠT":426,"ack":427,"bo":428,"set":429,"span":430,"able":431,"age":432,"der":433,"--------":434,"ith":435,"ra":436,"vi":437,"Ġ(":438,"ĠA":439,"ĊĠĠĠ":440,"qu":441,"Con":442,"ref":443,"for":444,"px":445,"lic":446,"td":447,"ĠS":448,"col":449,"10":450,"fo":451,"xt":452,"let":453,"imp":454,"ase":455,"bu":456,"12":457,"all":458,"../":459,"cont":460,"ke":461,"ment":462,"ist":463,"32":464,"per":465,"De":466,"err":467,"Ġis":468,"fa":469,"Ġ2":470,"ult":471,"par":472,"av":473,"po":474,"pro":475,"ze":476,"fun":477,"16":478,"res":479,"sel":480,"ho":481,"div":482,"es":483,"com":484,"ect":485,"Co":486,"><":487,"self":488,"IN":489,"CC":490,"text":491,"ted":492,"ption":493,"ml":494,"code":495,"Ġfor":496,"Ċĉĉĉĉ":497,"Ġand":498,"this":499,"ĊĊĠĠĠĠ":500,"value":501,"Ġ\"":502,"Str":503,"ser":504,"tp":505,"Ġ{":506,"ĠL":507,"und":508,"=>":509,"14":510,"====":511,"data":512,"new":513,"*:":514,"15":515,"ype":516,"string":517,"Ġ*/":518,"[*:":519,"Ġ-":520,"one":521,"ER":522,"St":523,"33":524,"our":525,"be":526,"000":527,"Ċĉĉĉ":528,"ject":529,"__":530,"99":531,"mat":532,"##":533,"use":534,"Ex":535,"ta":536,"Ġ×":537,"add":538,"Ġ3":539,"Ġ<":540,"vo":541,"rom":542,"Ġh":543,"var":544,"import":545,"Type":546,"64":547,"lu":548,"18":549,"ĠP":550,"ĊĠĠĠĠĠĠĠĠĠĠ":551,"arg":552,"put":553,"pub":554,"String":555,"ĠO":556,"ĊĠĠĠĠĠĠĠĠĠĠĠĠĠĠĠĠĠĠĠĠ":557,"25":558,"********":559,"ure":560,"od":561,"are":562,"test":563,"uct":564,"../../":565,"00000000":566,"ath":567,"http":568,"em":569,"ly":570,"Ġbe":571,"out":572,"ON":573,"11":574,"ll":575,"gro":576,"ers":577,"que":578,"file":579,"ext":580,"ource":581,"pt":582,"ci":583,"Name":584,"href":585,"RE":586,"ft":587,"Ġm":588,"Ġn":589,"Ġno":590,"content":591,"ĠF":592,"13":593,"line":594,"EN":595,"void":596,"html":597,"17":598,"scri":599,"ĠI":600,"Ġe":601,"sh":602,"lock":603,"])":604,"IT":605,"Ġ@":606,"ull":607,"ĠĠĠĠĠĠĠĠĠĠĠĠ":608,"Ġ4":609,"/*":610,"En":611,"///":612,"const":613,"Pro":614,"ts":615,"len":616,"ST":617,"No":618,"fig":619,"rr":620,"ew":621,"struct":622,"ĠM":623,"://":624,"bject":625,"Ġor":626,"19":627,"ance":628,"stat":629,"ang":630,"ans":631,"ind":632,"List":633,"pre":634,"ense":635,"ãģ":636,"function":637,"24":638,"ms":639,"ght":640,"ite":641,"ĠD":642,"eld":643,"ain":644,"AT":645,"ass":646,"----------------":647,"Ġ->":648,"ay":649,"Ġon":650,"inter":651,"ule":652,"à¤":653,"key":654,"comp":655,"define":656,"Ġde":657,"back":658,"ag":659,"Id":660,"jav":661,"ary":662,"Ġ=":663,"AR":664,"org":665,"66":666,"ray":667,"\\/":668,"Err":669,"js":670,"01":671,"ight":672,"ile":673,"Ġwith":674,"To":675,"Val":676,"IC":677,"nt":678,"28":679,"low":680,"dex":681,"im":682,"ink":683,"time":684,"size":685,"quest":686,"ĊĊĠĠ":687,"Ġ[":688,"Ġan":689,"alse":690,"color":691,"):":692,"true":693,"SE":694,"lay":695,"pp":696,"\",":697,"Ġd":698,"ir":699,"Ġg":700,"vice":701,"form":702,"public":703,"param":704,"we":705,"50":706,"ord":707,"error":708,"ec":709,"act":710,"ĠG":711,"fore":712,"ĊĊĠĠĠĠĠĠĠĠ":713,");":714,"reate":715,"\":":716,"row":717,"dd":718,"ĊĠ":719,"ccc":720,"list":721,"af":722,"pr":723,"Ġthis":724,"ali":725,"Ġex":726,"Ġst":727,"vent":728,"ener":729,"ator":730,"ĠB":731,"tri":732,"oo":733,"80":734,"art":735,"wid":736,"22":737,"ID":738,"ui":739,"ert":740,"Ġpro":741,"cess":742,"tle":743,"Ġ#":744,"Ġ|":745,"sion":746,"AN":747,"34":748,"doc":749,"30":750,"read":751,"ange":752,"che":753,"AL":754,"ĠW":755,"ground":756,"ber":757,"Ġ`":758,"Ġ5":759,"Un":760,"sy":761,"Ġthat":762,"unt":763,"io":764,"right":765,"Ar":766,"ree":767,"java":768,"(=":769,"ity":770,"ont":771,"75":772,"loc":773,"\"\"":774,"Se":775,"35":776,"date":777,"gr":778,"lude":779,"ĠN":780,"port":781,"Lo":782,"Ġ'":783,"OR":784,"Ġy":785,"ou":786,"ign":787,"ust":788,"title":789,"order":790,"LE":791,"60":792,"spon":793,"Ġcon":794,"Error":795,"ory":796,"app":797,"of":798,"ssage":799,"Ġun":800,"ant":801,"AAAA":802,"lement":803,"ace":804,"29":805,"else":806,"27":807,"wn":808,"=\"":809,"sition":810,"ĊĠĠĠĠĠĠĠ":811,"40":812,"ãĤ":813,"https":814,"ence":815,"Mo":816,"Ġit":817,"Me":818,"tes":819,"ong":820,"](":821,"ument":822,"Value":823,"Par":824,"ork":825,"ire":826,"38":827,"ãĥ":828,"om":829,"ĉĉĉĉ":830,"icense":831,"65":832,"au":833,"Ġby":834,"log":835,"ph":836,"Res":837,"Po":838,"ild":839,"est":840,"Ġmo":841,"45":842,"\\\"":843,"lab":844,"false":845,"×Ļ":846,"before":847,"ĠThe":848,"NC":849,"Ġnot":850,"37":851,"ard":852,"enti":853,"thod":854,"67":855,"ĊĠĠĠĠĠĠĠĠĠĠĠĠĠĠĠĠĠĠĠĠĠĠĠĠ":856,"========":857,"map":858,"48":859,"nc":860,"69":861,"width":862,"lang":863,"39":864,"amp":865,"so":866,"path":867,"del":868,"Data":869,"try":870,"null":871,"&&":872,"Set":873,"DE":874,"ssion":875,"0000000":876,"ĠĠĠĠĠĠĠĠĠĠĠĠĠĠĠĠĠĠĠĠĠĠĠĠĠĠĠĠĠĠĠĠ":877,"Sy":878,"AC":879,"pri":880,"sponse":881,"ot":882,"ache":883,"Ch":884,"ader":885,"roid":886,"Ġuse":887,"AS":888,"68":889,"/**":890,"ere":891,"Ġt":892,"Ġme":893,"field":894,"rc":895,"ip":896,"til":897,"min":898,"ken":899,"ault":900,"from":901,"pec":902,"mb":903,"gs":904,"!=":905,"Ġwh":906,"ated":907,"gth":908,"py":909,"Ġclass":910,"ĠLicense":911,"ach":912,"gn":913,"background":914,"assert":915,"TI":916,"link":917,"Ġse":918,"cl":919,"****************":920,"stance":921,"default":922,"clude":923,"uint":924,"\\'":925,"lient":926,"dis":927,"android":928,"mod":929,"static":930,"Ġdi":931,"PI":932,":=":933,"×ķ":934,"Ġif":935,"88":936,"()":937,"ception":938,"yle":939,"mi":940,"trans":941,"tions":942,"bar":943,"44":944,"Ġr":945,"ive":946,"cur":947,"Ser":948,"ĊĠĠĠĠĠ":949,"ĊĊĉ":950,"by":951,"top":952,"AB":953,"case":954,"Ġma":955,"IS":956,"ffff":957,"ark":958,"block":959,"ill":960,"AD":961,"lect":962,"atch":963,"rap":964,"70":965,"ww":966,"umber":967,"21":968,"func":969,"55":970,"CO":971,"AG":972,"Tr":973,"ome":974,"Ġ--":975,"Ġco":976,"index":977,"0000000000000000":978,";\\":979,"version":980,"match":981,"HE":982,"mage":983,"78":984,"Ġas":985,"left":986,"Ke":987,"Bu":988,"####":989,"tive":990,"ĠE":991,"ery":992,"\"\\":993,"UT":994,"md":995,"FF":996,"tern":997,"90":998,"face":999,"ĉĉĉ":1000,"uld":1001,"ib":1002,"ĠĠĠĠĠ":1003,"Ġvalue":1004,"Ġ;":1005,"Col":1006,"ĠH":1007,"Ġfile":1008,"Ġname":1009,"rite":1010,"ps":1011,"An":1012,"dy":1013,"ded":1014,"load":1015,"ĊĠĠĠĠĠĠĠĠĠĠĠĠĠĠĠĠĠĠĠĠĠĠĠĠĠĠĠĠĠĠĠĠ":1016,"ĠRe":1017,"comm":1018,"sub":1019,"26":1020,"tribu":1021,"Ġ}":1022,"item":1023,"fn":1024,"node":1025,"wh":1026,"ther":1027,"table":1028,"ãĢ":1029,"stem":1030,"reg":1031,"At":1032,"ast":1033,"Get":1034,"ime":1035,"ize":1036,"ak":1037,"user":1038,"with":1039,"ave":1040,"char":1041,"ger":1042,"icon":1043,"Object":1044,"Ġare":1045,"play":1046,"03":1047,"ress":1048,"<\\/":1049,"script":1050,"ES":1051,"TR":1052,"ream":1053,"Key":1054,"array":1055,"argin":1056,"For":1057,"unction":1058,"ash":1059,"api":1060,"font":1061,"By":1062,"Int":1063,"view":1064,"ute":1065,"ameter":1066,"ffer":1067,"77":1068,"arget":1069,"Ġfrom":1070,"length":1071,"arch":1072,"ton":1073,"OC":1074,"UL":1075,"Do":1076,"ations":1077,"Ġal":1078,"check":1079,"result":1080,"ob":1081,"space":1082,"state":1083,"peci":1084,"×Ļ×":1085,"br":1086,"49":1087,"not":1088,"fic":1089,"valid":1090,"mary":1091,"23":1092,"lean":1093,"Ag":1094,"late":1095,"),":1096,"his":1097,"nil":1098,"Ġ.":1099,"Test":1100,"Ġat":1101,"stri":1102,"////":1103,"boo":1104,"count":1105,"cal":1106,"58":1107,"@@":1108,"AM":1109,"nb":1110,"ĠĠĠĠĠĠĠ":1111,"++":1112,"border":1113,"Comp":1114,"perty":1115,"sign":1116,"sum":1117,"iv":1118,"cr":1119,"quire":1120,"iter":1121,"ĠR":1122,"utton":1123,"OT":1124,"ET":1125,"ED":1126,"ĠĠĠĠĠĠ":1127,"File":1128,"Config":1129,"rent":1130,"47":1131,"style":1132,"position":1133,"qual":1134,"work":1135,"include":1136,"||":1137,"Ac":1138,"ä¸":1139,"max":1140,"Exception":1141,"vate":1142,"Ġcan":1143,"Ġset":1144,"scription":1145,"gin":1146,"Ġtype":1147,"Ġen":1148,"margin":1149,"pi":1150,"loat":1151,"config":1152,"init":1153,"web":1154,"source":1155,"sk":1156,"Time":1157,"ĠU":1158,"SI":1159,"input":1160,"×ķ×":1161,"ĊĠĠĠĠĠĠĠĠĠĠĠĠĠĠ":1162,"main":1163,"height":1164,"fin":1165,"Option":1166,"old":1167,"98":1168,"url":1169,"lat":1170,"mut":1171,"-.":1172,"contain":1173,"36":1174,"Ġ:":1175,"ample":1176,"ĊĠĠĠĠĠĠĠĠĠĠĠĠĠĠĠĠĠĠĠĠĠĠĠĠĠĠĠĠ":1177,"ee":1178,"adding":1179,"Ġ6":1180,"over":1181,"print":1182,"ware":1183,"erence":1184,"group":1185,"util":1186,"Fi":1187,"State":1188,"hould":1189,"95":1190,"aw":1191,"ax":1192,"Vi":1193,"roll":1194,"><\\/":1195,">>":1196,"using":1197,"02":1198,"module":1199,"mm":1200,"100":1201,"Array":1202,"Ġdo":1203,"Map":1204,"None":1205,"Ġpo":1206,"rame":1207,"IL":1208,"Text":1209,"Ġso":1210,"pack":1211,"Ġyou":1212,"nbsp":1213,"create":1214,"Pre":1215,"Cont":1216,"Node":1217,"args":1218,"Context":1219,"mpty":1220,"lex":1221,"ens":1222,"label":1223,"ĠIn":1224,"base":1225,"its":1226,"os":1227,"05":1228,"arent":1229,"ound":1230,"Ġv":1231,"ask":1232,"Ġ%":1233,"\",\"":1234,"Ġli":1235,"red":1236,"MA":1237,"info":1238,"Ġac":1239,"bool":1240,"Ċĉĉĉĉĉ":1241,"Ġ8":1242,"Ġ,":1243,"--------------------------------":1244,"dev":1245,"ĠThis":1246,"ies":1247,"Ġ\\":1248,"Ġget":1249,"OP":1250,"the":1251,"79":1252,"ffset":1253,"src":1254,"PE":1255,"pop":1256,"body":1257,"Ġcomp":1258,"Event":1259,"Request":1260,"'s":1261,"ature":1262,").":1263,"rol":1264,"04":1265,"âĢ":1266,"Ġreturn":1267,"tom":1268,"go":1269,"fix":1270,"85":1271,"ca":1272,"Ġwill":1273,"ings":1274,"Ġpar":1275,"ï¼":1276,"09":1277,"box":1278,"UR":1279,"ok":1280,"Ġ20":1281,"gle":1282,"Qu":1283,"pen":1284,"lete":1285,"private":1286,"Th":1287,"([*:":1288,"uration":1289,"ateg":1290,"UN":1291,"Ġx":1292,"sed":1293,"Ġ7":1294,"json":1295,"fil":1296,"Ġi":1297,"Stat":1298,"ĠV":1299,"../../../../":1300,"how":1301,"fir":1302,"IG":1303,"Path":1304,"mail":1305,"aa":1306,"Ġ*)":1307,"``":1308,"CL":1309,"Ġ9":1310,"],":1311,"Ġunder":1312,"Message":1313,"ĊĠĠĠĠĠĠĠĠĠĠĠ":1314,"ait":1315,"ses":1316,"kit":1317,"Response":1318,"Result":1319,"umn":1320,"Info":1321,"start":1322,"word":1323,"Ġwe":1324,"ties":1325,"fe":1326,"iz":1327,"42":1328,"temp":1329,"EX":1330,"aliz":1331,"nav":1332,"db":1333,"ep":1334,"fied":1335,"08":1336,"vel":1337,"cted":1338,"\"\"\"":1339,"std":1340,"\">":1341,"US":1342,"Add":1343,"ptr":1344,"View":1345,"...":1346,"41":1347,"Ġ/":1348,"ING":1349,"(*":1350,"53":1351,"mt":1352,"button":1353,"move":1354,"Code":1355,"ler":1356,"CH":1357,"pos":1358,"summary":1359,"onent":1360,"mem":1361,"Ġch":1362,"net":1363,"ud":1364,"CT":1365,"UG":1366,"core":1367,"ow":1368,"46":1369,"led":1370,"31":1371,"ĊĠĠĠĠĠĠĠĠĠ":1372,"stribu":1373,"raw":1374,"Up":1375,"Ġ$":1376,"update":1377,"rect":1378,"Ite":1379,"ĊĊĠĠĠĠĠĠĠĠĠĠĠĠ":1380,"Field":1381,"200":1382,"Sh":1383,"head":1384,"He":1385,"SY":1386,"lection":1387,"cs":1388,"defin":1389,"webkit":1390,"lib":1391,"lt":1392,"status":1393,"IF":1394,"Ġall":1395,"header":1396,"ann":1397,"Class":1398,"open":1399,"action":1400,"context":1401,"Ref":1402,"ĠĠĠĠĠĠĠĠĠ":1403,"ng":1404,"object":1405,"display":1406,"000000":1407,"Ġfunction":1408,"MP":1409,"dow":1410,"lob":1411,"mit":1412,"lace":1413,"align":1414,"ick":1415,"ithub":1416,"opy":1417,"===":1418,"target":1419,"roup":1420,"ba":1421,"indow":1422,"iti":1423,"×Ķ":1424,"bot":1425,"cy":1426,"gt":1427,"06":1428,"07":1429,"last":1430,"wrap":1431,"method":1432,"padding":1433,"Index":1434,"97":1435,"ual":1436,"57":1437,"interface":1438,"à¥":1439,"sol":1440,"ape":1441,"request":1442,"ail":1443,"men":1444,"IP":1445,"TY":1446,"point":1447,"System":1448,"(\"":1449,"RO":1450,"Ġ</":1451,"github":1452,"ersion":1453,"orm":1454,"proto":1455,"ved":1456,"flow":1457,"first":1458,"tribute":1459,"long":1460,"ftware":1461,"uc":1462,"query":1463,"write":1464,"fier":1465,"boolean":1466,"ise":1467,"ĊĊĊ":1468,"buf":1469,"pect":1470,"image":1471,"Element":1472,"96":1473,"Size":1474,"Au":1475,"num":1476,"IO":1477,"Service":1478,"ili":1479,"event":1480,"Cc":1481,"run":1482,"The":1483,"model":1484,"tain":1485,"ster":1486,"client":1487,"Ġtr":1488,"Or":1489,"apache":1490,"Le":1491,"clo":1492,";}":1493,"tsd":1494,"ush":1495,"ich":1496,"43":1497,"Ġspeci":1498,"ĠDe":1499,"Ġdata":1500,"sw":1501,"popup":1502,"reak":1503,"none":1504,"Ġper":1505,"Group":1506,"Bo":1507,"filter":1508,"sm":1509,"vari":1510,"=\\'":1511,"format":1512,"cle":1513,"transform":1514,"Of":1515,"ccccc":1516,"cri":1517,"kind":1518,"pected":1519,"cord":1520,"dif":1521,"document":1522,"62":1523,"options":1524,"dir":1525,"ilder":1526,"message":1527,"59":1528,"andle":1529,"alize":1530,"cf":1531,"\":\"":1532,"×¨":1533,"Ġne":1534,"================":1535,"'t":1536,"bl":1537,"},":1538,"ner":1539,"App":1540,"Some":1541,"ren":1542,"Ġj":1543,"89":1544,"))":1545,"QU":1546,"Resource":1547,"ister":1548,"87":1549,"bottom":1550,"ai":1551,"<!":1552,"<<":1553,"OD":1554,"Token":1555,"Ġ+":1556,"oc":1557,"utput":1558,"Ġà¤":1559,"license":1560,"ĠĠĠĠĠĠĠĠĠĠĠ":1561,"',":1562,"ulti":1563,"adi":1564,"enter":1565,"important":1566,"call":1567,"Item":1568,"86":1569,"afe":1570,"quired":1571,"ors":1572,"float":1573,"cond":1574,"Ġstring":1575,"bug":1576,"fd":1577,"56":1578,"env":1579,"auto":1580,"fla":1581,"eb":1582,"Ġau":1583,";&":1584,"ore":1585,"tag":1586,"instance":1587,"){":1588,"ternal":1589,"ning":1590,"Ġ00":1591,"Ġid":1592,"cript":1593,"ics":1594,"ĠK":1595,"ial":1596,"uble":1597,"oogle":1598,"Ġhave":1599,"mbol":1600,"SS":1601,"www":1602,"byte":1603,"cept":1604,"current":1605,"ĠĠĠĠĠĠĠĠĠĠ":1606,"Ġint":1607,"ĠAN":1608,"×Ĳ":1609,"token":1610,"output":1611,"On":1612,"Reg":1613,"og":1614,"next":1615,"Status":1616,"54":1617,"ix":1618,"rt":1619,"With":1620,"Ġmay":1621,"ĠIf":1622,"Var":1623,"bb":1624,"ĠOR":1625,"Ġimp":1626,"any":1627,"Model":1628,"JS":1629,"\\\\":1630,"Ġnew":1631,"page":1632,"/>":1633,"lable":1634,"Ġfield":1635,"package":1636,"Ġobject":1637,"son":1638,"AP":1639,"export":1640,"ICAg":1641,"########":1642,"ally":1643,"Is":1644,"vis":1645,"Ġ&":1646,"*,":1647,"Comm":1648,"Log":1649,"Ġlist":1650,"Ġused":1651,"Ġcopy":1652,"00000000000000000000000000000000":1653,"df":1654,"andler":1655,"ublic":1656,"LO":1657,"break":1658,"inline":1659,"SC":1660,"ãĢĤ":1661,"active":1662,"From":1663,"Ġback":1664,"ME":1665,"igh":1666,"ctx":1667,"abled":1668,"cor":1669,"Ġshould":1670,"ustom":1671,"TE":1672,"Ġerror":1673,"ĊĠĠĠĠĠĠĠĠĠĠĠĠĠĠĠ":1674,"AAAAAAAA":1675,"Ġapp":1676,"×ľ":1677,"Ġro":1678,"fault":1679,"ĠTHE":1680,"ible":1681,"ride":1682,"Ġany":1683,"leaf":1684,"exp":1685,"place":1686,"ql":1687,"76":1688,"<!--":1689,"ctor":1690,"parse":1691,"column":1692,"52":1693,"ameters":1694,"params":1695,"TH":1696,"dt":1697,"down":1698,"Ġcode":1699,"ding":1700,"Create":1701,"94":1702,"Per":1703,"lease":1704,"docs":1705,"Client":1706,"Ġk":1707,"nal":1708,"ative":1709,"User":1710,"********************************":1711,"OL":1712,"ĊĊĉĉ":1713,"PR":1714,"chema":1715,"ager":1716,",-":1717,"Inter":1718,"ML":1719,"].":1720,"turn":1721,"option":1722,"alt":1723,"74":1724,"Man":1725,"sup":1726,"EB":1727,"throw":1728,"colla":1729,"ld":1730,"ension":1731,"container":1732,"9999":1733,"ENT":1734,"Al":1735,"Equal":1736,"Ġdistribu":1737,"itor":1738,"Ġ==":1739,"ify":1740,"Ġcall":1741,"OS":1742,"attr":1743,"css":1744,"Be":1745,"ĠY":1746,"opyright":1747,"Ġversion":1748,"////////":1749,"ell":1750,"RC":1751,"Color":1752,"SYS":1753,"Cl":1754,"84":1755,"rag":1756,"ĠOF":1757,"Base":1758,"61":1759,"Ġwhich":1760,"HT":1761,"Stream":1762,"lication":1763,"annel":1764,"ï¼Į":1765,"way":1766,"idd":1767,"Ġle":1768,"Ċĉĉĉĉĉĉ":1769,"offset":1770,"has":1771,"cket":1772,"GU":1773,"internal":1774,"Ġsub":1775,"ĊĊĠĠĠĠĠĠ":1776,"Ġ×Ķ":1777,"bi":1778,"ale":1779,"thing":1780,"lin":1781,"defined":1782,"mark":1783,"82":1784,"response":1785,"Ġwhen":1786,"DB":1787,"older":1788,"select":1789,"Ġser":1790,"Ġbu":1791,"Table":1792,"pl":1793,"INT":1794,"FO":1795,"search":1796,"çļ":1797,"='":1798,"83":1799,"leaflet":1800,"PL":1801,"safe":1802,"rel":1803,"ces":1804,"dition":1805,"mission":1806,"vid":1807,"perties":1808,"stream":1809,"number":1810,"MM":1811,"tail":1812,"CON":1813,"äº":1814,"du":1815,"pc":1816,"Ġadd":1817,"72":1818,"command":1819,"argument":1820,"msg":1821,"gener":1822,"las":1823,"Sp":1824,"Version":1825,"ility":1826,"auth":1827,"description":1828,"uage":1829,"92":1830,"Ġ-->":1831,"Input":1832,"Ġ10":1833,"NU":1834,"where":1835,"Ġdis":1836,"Ho":1837,"Net":1838,"signed":1839,"+=":1840,"63":1841,"çļĦ":1842,"CS":1843,"scroll":1844,"Ð°":1845,"Ġtime":1846,"ank":1847,"tings":1848,"Sub":1849,"Imp":1850,"parent":1851,"Ad":1852,"SH":1853,"adata":1854,"ates":1855,"Line":1856,"heck":1857,"IM":1858,"EL":1859,"obj":1860,"Property":1861,"à¶":1862,"tributes":1863,"aint":1864,"Ġl":1865,"×ŀ":1866,"xy":1867,"gen":1868,"():":1869,"Ġrequest":1870,"gram":1871,
[...]
